node {
  name: "conv2d_input"
  op: "Placeholder"
  attr {
    key: "dtype"
    value {
      type: DT_FLOAT
    }
  }
  attr {
    key: "shape"
    value {
      shape {
        dim {
          size: -1
        }
        dim {
          size: 128
        }
        dim {
          size: 128
        }
        dim {
          size: 1
        }
      }
    }
  }
}
node {
  name: "conv2d/kernel"
  op: "Const"
  attr {
    key: "dtype"
    value {
      type: DT_FLOAT
    }
  }
  attr {
    key: "value"
    value {
      tensor {
        dtype: DT_FLOAT
        tensor_shape {
          dim {
            size: 3
          }
          dim {
            size: 3
          }
          dim {
            size: 1
          }
          dim {
            size: 64
          }
        }
        tensor_content: "\300:r=\230\014\256\275(\265\224\275\227d\303\275\256\275\310\275\211\201B\275\365\303}\2757R\'\275\355sd;KU\"\275Jh\345\275\331d\350\273^\237\032=\235\332\005\275\307\310\305\274\343!\237\275\362\355\014\274E\276o<\262\331k=\254z\346:6;A=\010F\2479\rd\010=\016\265\273=@d\037\275\251\306\313<Z\246<\275\037=\224\275\220\201\264\275\242N\266\274h\220|\275\r\230\342<\264e\214\274\376\244\036\273\205\277\213=\325\035\037\274f\027N\275\271\242\221:\323I\235=\364\013\254=\206N\035=[&\376\274)}?\275?-c\275\361\274\304=ZW|\275\373\213r=\325\345\r\275\336:\263\275 \335\346<4}\216=yQ\266\274\213\\\224\275\r\272$\275k\321@\275\2274g\275U\317H<4_\231=\275d\246=*Y(<\034\264\361\2740W\234=\261aD\275\261\266\345<\256^4=C\251\246\275K_\253\275\326\315\206\275\355i\222=p\355\230\275&\363l<\216\213\301\273\221B\350\275FN|=\265\376\335\273d\245\273=a\230=\275\304\227\267\275U\370\272=~\275\\\275\'\266\204<}\365\204<_\177P<\354\342\357<\370\344\254\274\343f\005\276\353\272\274=\326\"y\275\215A\215==\337\334\275\027T.\275\345\333\024<\223\270\236=y\030\030=t.\305=Hx\316<B`s\275\337^\201=\306w\r\276\323\322|=O}\377\274\250\366\266\273e\213\271\275\244\221\036\275<Fv\275\374\243B\274\313\302\351\274\377\270\266\275\323\024L\275~j=;\324&\262=_\030\215\275\240\340k\275\360+V\275\230\251\234=\235\247N=\001z\310=\3351\235\273d\257\212=\352X\203\275\274]N\275\351\3229=\371\010\305\275\327\302\224=\353\357\265\275\244\022\217=\2644\266<\275\022-=$\034\334\275\2348\013=\234\262\251\275\231\251\222\275\\\"\032=\366YM\275\356\356(\275\243D\263\275Uy\316\275\256\262\333\275A\355\240=\256\017\226<\266n\253=\316\342_\275C\220\003\275\277\251\270\274\354\251\345<\226\240\013\275\370\273(\275Fw\032\275\227\332\003=\352\r|<\262r\275\275\001\265\274\275\363_\355\274E\311\267<Rp\036\275\022\3742<~\332\360;\331\\a\275\316/\241\275\245\211\201=r\026\370<\262(9\275\237\347+\275\306I\216\274\235\242\266:\007\241\360\274\027\025\r;\320\207\340<}\377p\275<\200\347\275`D\021=\203\234\224=(\236F=A\nW=\2666\236=G\006\310:\017:\\\275\n\337\240=\3311C=Gj\253\275O3\246\275\332\320C\275\245\014\315\275\240\263\222\275\221\254\261\275.b0\274\032\332\207\275){\006\273\272\273\210\275\322[\027\275cl\n\275\214b\353\274ppj\275\315%\017\275\262\013\013\274n\226O=\321\307\306\275\367\353\304\275\006\224\001\273\215z\356\275\321\323\023\276\013\246z=}\254\242\275\"\261B=\254\264r\275\332\333\'=\360\n\236=\336\3273=>\302\205=c\303\227\275\013\235\314\275\242\226\233=Ht\016=,\215b=*\305\177=9\177\342<\014\226\245<n\344\272=9\"\373<\217\002G<\211-\243\275\261\240\333=\2078\222\2758.6\275\021]\330;\250\272X<\277\035\275\275\271\233\032\273\370\037\253=\225\323\233=O\211d=\300Q\247\275Re\215\274\240\222\241\275j\300^\275c\361\354\275$Fr=\336[\355=\327\3133=s\332\204=^y\331=U\251l=zA\223\275\304z\304\275jb\323=\374a\363\272\260<\231=\335\033\370\274(\340+\275\223Q\266\274\277@\246\275\260Ps=q\331\365;.\366\036\274\000\270\010=\343^\313\274U\310v\274.\300\320<\355D\177=\256\361\305=\225\364\244=\341\225\222=4cX=\272&}\275\371J\022=\345\332\336<\031\202%=e\265\356<\3430\276=[\236\310=\365\327\253\275K\336Y=\243\2539\274\251O\333\274\276\215\200\275\353g\270\275\317\000\372<\325\210\325\274;\376\326\275aP|=\332\'\2559\017y`\275\014\323\002:vh\270\275\345\317\244\275!\342[\275\227a\267\275\236U\320=\327\336\377\274\004\301\275\275L\001\201=:\004\253=\214\207y\275\267Kh=\327\257\372<\271\t\244=P\271\312;\2456\'=\372`\376\275\363\300F=?\n\270\275\356^\323\274\"\347\307;/\235\250=\220\270\356\275vw\230=Qs\322\2755\240s=\263\301\274=\216\'\307=}\327$=\321\201\271;\362\372\324=XK\317\275ud\230\275\356d\362\2753\343\240=\260\027\246\2753\004\353;8\342\020=C\377f=\325G\253=\0365P\275h\n\314\275\345\230\301\273\350\303G=o %\275\235\007\244=)\217t<q\026;=\336o\210\275\215\366\256\275p\232\375\2748$\316=\226\246\356=\031^\007=Uh\256\275\031\207>\275\357\022@=\304\032\206\2727Y\"\275\342K\266;~\211\002\276<\357Q=\351\301\213=3\366\213=\2427\212\274_!\202<\241\220\231=\210t\211\275b?\026\275\001SW\275\230 \221\275B\2009\275\206\037\223\275\005\3735\275\035\345\254\275Ny|\275\336\305[<\336\346L\275M\323\243=\323\362I\275p^\265=\016)^\275\002\200\"\275\225R\355\275^O\356\275\305\251s=L{\226\272\t\341\\=\333w\177=\312\334\242<\215\272\013\276\270\001\334\275\360\276\001=n\326\260\275\373F\361\275\237q\252=\\{r<\300S\340\275;a5<\036\026\351\275\"j\204<k^\355\274\350kZ\274\001\361M\271\237\214\311\2758\320\201\275gn\035\274\337\221\353\275u\001\024\274r\342\235=\014H\003=t5\365<\031 \021<]\353\203\273\014\177\266=\234~\254\275\030bd\274\337C\227\275\276\025\272\275\214\314\360<\322g\270<\261UT=#\234\364<\305\341\177;\027\322\213\275\020n\225<iA\236=~\003\250=\225+\004=\316\311\314\275\336|\304;0\'\242=\263u\315\275<W\226\275mf\251\275?\'\210=\021\004\223\275\346\035\325\275\365l\";\"\204\177\275y\361\227\275\017\221\306\275U+\201=\035\220\216=06\267=\214 :\275\360\372\344;\335\236#<}x\267\273\240\242\036\274S&\273=\245\220\224\275\'\250\272\274\273\341\256\275o^\010\275%\026\357\275%A\326:\316\273\205\275\216v\351=\016C%<\317f\375<\227!\266=\221\310\307\274K\350\240=\027\271\360\275N8*=\021\331\227=]\244\222<[.\013=\033\241\270=\206z7\275\244V\362<\017,\305\275\270\210\235=\320\247\211\271w\263\002\275v\226\302=\350\243o\274\013\013\247\275u\027v\275\005D\256\275\303\005\352<\340\206\364\274k<h=\317\376\201=*8y\275a\273\222\274A\n;=\252\346\317\275\241B\252\2742a\014\275[\004\242\275\361\240\215=C\356Y\275#u\307=f\216#=\222\325/=\362\315\311\275\257\300\252=\277<\322\275\274\266\035=%\277\271=X\020\354=\331\374\355\274\325l\r\275L\367)\274XUO=\373\222\020<Q\024\222\275:\013N\275\\\341m\275mX\237\275\037\366\345\274\247\022\244\273\365W\024=\350\200\321\275\246\247u\275\276\252\227=\312\350\211\275\277\241K\275\201\002\361\275\304<o\275\277|a<\315\014\336;)\363\335\275\001\370H=\257Nr=\271\331\232\274\010\276}=#]\241<\315\313\017=0o\224=$\215\251\275\210\345\r\275\344\363\247=\361u\242=\275=\261\274V\323{\275T\262\260=l\177\024\275\030\377y=\263\255\247\275H\021^\275\331#\260\275\333\363\210\275\210\247\243=\326n\364\274\341\256\220=;\251.\273\356\303\312\275\254\225\320\275\262\356\257\275\034\316\221=\241\016V\275\032\350\202\275CO\302\274\254P\374<g8\316=\375\022\023<=\203&\275\002\036\340=!\r+\275\\\340d\274\314\010\030\275l\317\251\275\2425\205<\371\003\220\275Uh\364\275s\343\250=:\n\212\275\022\324*\275\022{\274;\021\270\214\275\235\021\201=\364\252.<\220g\211\275\356\233\301\275 \336\212\275\024\376\361\275Z<\013\275M\264\361<s/\245=U\024\204\275\342U,=\002\277\226=,\370\360<e@\336\275\334\"!\275/\213\253=\245\352i\274\206\004\274=\272\220\221=!\003\272\275Z=I="
      }
    }
  }
}
node {
  name: "conv2d/bias"
  op: "Const"
  attr {
    key: "dtype"
    value {
      type: DT_FLOAT
    }
  }
  attr {
    key: "value"
    value {
      tensor {
        dtype: DT_FLOAT
        tensor_shape {
          dim {
            size: 64
          }
        }
        tensor_content: "\374\307J\275\267\361\026\275\320\223\203\273\224\213\233=\375\206\031\2751\007\013<\335#\251\2732d\200<n=\325</\242\337\274\257\256\370\274WO\205\274%\002 \275\313\313<<ye4\274Z\215\340\274v.\273<\237\376\237\274\241a\337\274\372{=<\235o\034\275\r\204\025=\245\373S<\266\314\013\275\330\207e\275e\237\014\275\320\276\305\274q\003\007=\"\334!\275d\356\t\275\017\031\032=\231l(<\205\334\002\274i\020\007=G\r,=\001\274/\275\t\367\353;\021\276@=@%%\275\256\021\021=y\236<\275\375&u=\022\336W=\037;\202=rYy\274\206\256\357<\030\311\017\275\3468\027\275\3568\201=\030\307\006\275Rr\030\275\030\322\272\274\371\006\350;K\276\262=\305l(\275\n:a\2745\372\001=U\352\022\275\227\200E=\027@\026\275\035_&\275\177\206\025\275rz^\2745,\023\275"
      }
    }
  }
}
node {
  name: "conv2d/Conv2D/ReadVariableOp"
  op: "Identity"
  input: "conv2d/kernel"
  attr {
    key: "T"
    value {
      type: DT_FLOAT
    }
  }
}
node {
  name: "conv2d/Conv2D"
  op: "Conv2D"
  input: "conv2d_input"
  input: "conv2d/Conv2D/ReadVariableOp"
  attr {
    key: "T"
    value {
      type: DT_FLOAT
    }
  }
  attr {
    key: "data_format"
    value {
      s: "NHWC"
    }
  }
  attr {
    key: "dilations"
    value {
      list {
        i: 1
        i: 1
        i: 1
        i: 1
      }
    }
  }
  attr {
    key: "explicit_paddings"
    value {
      list {
      }
    }
  }
  attr {
    key: "padding"
    value {
      s: "VALID"
    }
  }
  attr {
    key: "strides"
    value {
      list {
        i: 1
        i: 1
        i: 1
        i: 1
      }
    }
  }
  attr {
    key: "use_cudnn_on_gpu"
    value {
      b: true
    }
  }
}
node {
  name: "conv2d/BiasAdd/ReadVariableOp"
  op: "Identity"
  input: "conv2d/bias"
  attr {
    key: "T"
    value {
      type: DT_FLOAT
    }
  }
}
node {
  name: "conv2d/BiasAdd"
  op: "BiasAdd"
  input: "conv2d/Conv2D"
  input: "conv2d/BiasAdd/ReadVariableOp"
  attr {
    key: "T"
    value {
      type: DT_FLOAT
    }
  }
  attr {
    key: "data_format"
    value {
      s: "NHWC"
    }
  }
}
node {
  name: "activation/Relu"
  op: "Relu"
  input: "conv2d/BiasAdd"
  attr {
    key: "T"
    value {
      type: DT_FLOAT
    }
  }
}
node {
  name: "max_pooling2d/MaxPool"
  op: "MaxPool"
  input: "activation/Relu"
  attr {
    key: "T"
    value {
      type: DT_FLOAT
    }
  }
  attr {
    key: "data_format"
    value {
      s: "NHWC"
    }
  }
  attr {
    key: "ksize"
    value {
      list {
        i: 1
        i: 3
        i: 3
        i: 1
      }
    }
  }
  attr {
    key: "padding"
    value {
      s: "VALID"
    }
  }
  attr {
    key: "strides"
    value {
      list {
        i: 1
        i: 3
        i: 3
        i: 1
      }
    }
  }
}
node {
  name: "keras_learning_phase/input"
  op: "Const"
  attr {
    key: "dtype"
    value {
      type: DT_BOOL
    }
  }
  attr {
    key: "value"
    value {
      tensor {
        dtype: DT_BOOL
        tensor_shape {
        }
        bool_val: false
      }
    }
  }
}
node {
  name: "keras_learning_phase"
  op: "PlaceholderWithDefault"
  input: "keras_learning_phase/input"
  attr {
    key: "dtype"
    value {
      type: DT_BOOL
    }
  }
  attr {
    key: "shape"
    value {
      shape {
      }
    }
  }
}
node {
  name: "dropout/cond/Switch"
  op: "Switch"
  input: "keras_learning_phase"
  input: "keras_learning_phase"
  attr {
    key: "T"
    value {
      type: DT_BOOL
    }
  }
}
node {
  name: "dropout/cond/switch_t"
  op: "Identity"
  input: "dropout/cond/Switch:1"
  attr {
    key: "T"
    value {
      type: DT_BOOL
    }
  }
}
node {
  name: "dropout/cond/pred_id"
  op: "Identity"
  input: "keras_learning_phase"
  attr {
    key: "T"
    value {
      type: DT_BOOL
    }
  }
}
node {
  name: "dropout/cond/dropout/rate"
  op: "Const"
  input: "^dropout/cond/switch_t"
  attr {
    key: "dtype"
    value {
      type: DT_FLOAT
    }
  }
  attr {
    key: "value"
    value {
      tensor {
        dtype: DT_FLOAT
        tensor_shape {
        }
        float_val: 0.5
      }
    }
  }
}
node {
  name: "dropout/cond/dropout/Shape"
  op: "Shape"
  input: "dropout/cond/dropout/Shape/Switch:1"
  attr {
    key: "T"
    value {
      type: DT_FLOAT
    }
  }
  attr {
    key: "out_type"
    value {
      type: DT_INT32
    }
  }
}
node {
  name: "dropout/cond/dropout/Shape/Switch"
  op: "Switch"
  input: "max_pooling2d/MaxPool"
  input: "dropout/cond/pred_id"
  attr {
    key: "T"
    value {
      type: DT_FLOAT
    }
  }
  attr {
    key: "_class"
    value {
      list {
        s: "loc:@max_pooling2d/MaxPool"
      }
    }
  }
}
node {
  name: "dropout/cond/dropout/random_uniform/min"
  op: "Const"
  input: "^dropout/cond/switch_t"
  attr {
    key: "dtype"
    value {
      type: DT_FLOAT
    }
  }
  attr {
    key: "value"
    value {
      tensor {
        dtype: DT_FLOAT
        tensor_shape {
        }
        float_val: 0.0
      }
    }
  }
}
node {
  name: "dropout/cond/dropout/random_uniform/max"
  op: "Const"
  input: "^dropout/cond/switch_t"
  attr {
    key: "dtype"
    value {
      type: DT_FLOAT
    }
  }
  attr {
    key: "value"
    value {
      tensor {
        dtype: DT_FLOAT
        tensor_shape {
        }
        float_val: 1.0
      }
    }
  }
}
node {
  name: "dropout/cond/dropout/random_uniform/RandomUniform"
  op: "RandomUniform"
  input: "dropout/cond/dropout/Shape"
  attr {
    key: "T"
    value {
      type: DT_INT32
    }
  }
  attr {
    key: "dtype"
    value {
      type: DT_FLOAT
    }
  }
  attr {
    key: "seed"
    value {
      i: 0
    }
  }
  attr {
    key: "seed2"
    value {
      i: 0
    }
  }
}
node {
  name: "dropout/cond/dropout/random_uniform/sub"
  op: "Sub"
  input: "dropout/cond/dropout/random_uniform/max"
  input: "dropout/cond/dropout/random_uniform/min"
  attr {
    key: "T"
    value {
      type: DT_FLOAT
    }
  }
}
node {
  name: "dropout/cond/dropout/random_uniform/mul"
  op: "Mul"
  input: "dropout/cond/dropout/random_uniform/RandomUniform"
  input: "dropout/cond/dropout/random_uniform/sub"
  attr {
    key: "T"
    value {
      type: DT_FLOAT
    }
  }
}
node {
  name: "dropout/cond/dropout/random_uniform"
  op: "Add"
  input: "dropout/cond/dropout/random_uniform/mul"
  input: "dropout/cond/dropout/random_uniform/min"
  attr {
    key: "T"
    value {
      type: DT_FLOAT
    }
  }
}
node {
  name: "dropout/cond/dropout/sub/x"
  op: "Const"
  input: "^dropout/cond/switch_t"
  attr {
    key: "dtype"
    value {
      type: DT_FLOAT
    }
  }
  attr {
    key: "value"
    value {
      tensor {
        dtype: DT_FLOAT
        tensor_shape {
        }
        float_val: 1.0
      }
    }
  }
}
node {
  name: "dropout/cond/dropout/sub"
  op: "Sub"
  input: "dropout/cond/dropout/sub/x"
  input: "dropout/cond/dropout/rate"
  attr {
    key: "T"
    value {
      type: DT_FLOAT
    }
  }
}
node {
  name: "dropout/cond/dropout/truediv/x"
  op: "Const"
  input: "^dropout/cond/switch_t"
  attr {
    key: "dtype"
    value {
      type: DT_FLOAT
    }
  }
  attr {
    key: "value"
    value {
      tensor {
        dtype: DT_FLOAT
        tensor_shape {
        }
        float_val: 1.0
      }
    }
  }
}
node {
  name: "dropout/cond/dropout/truediv"
  op: "RealDiv"
  input: "dropout/cond/dropout/truediv/x"
  input: "dropout/cond/dropout/sub"
  attr {
    key: "T"
    value {
      type: DT_FLOAT
    }
  }
}
node {
  name: "dropout/cond/dropout/GreaterEqual"
  op: "GreaterEqual"
  input: "dropout/cond/dropout/random_uniform"
  input: "dropout/cond/dropout/rate"
  attr {
    key: "T"
    value {
      type: DT_FLOAT
    }
  }
}
node {
  name: "dropout/cond/dropout/mul"
  op: "Mul"
  input: "dropout/cond/dropout/Shape/Switch:1"
  input: "dropout/cond/dropout/truediv"
  attr {
    key: "T"
    value {
      type: DT_FLOAT
    }
  }
}
node {
  name: "dropout/cond/dropout/Cast"
  op: "Cast"
  input: "dropout/cond/dropout/GreaterEqual"
  attr {
    key: "DstT"
    value {
      type: DT_FLOAT
    }
  }
  attr {
    key: "SrcT"
    value {
      type: DT_BOOL
    }
  }
  attr {
    key: "Truncate"
    value {
      b: false
    }
  }
}
node {
  name: "dropout/cond/dropout/mul_1"
  op: "Mul"
  input: "dropout/cond/dropout/mul"
  input: "dropout/cond/dropout/Cast"
  attr {
    key: "T"
    value {
      type: DT_FLOAT
    }
  }
}
node {
  name: "dropout/cond/Identity"
  op: "Identity"
  input: "dropout/cond/Identity/Switch"
  attr {
    key: "T"
    value {
      type: DT_FLOAT
    }
  }
}
node {
  name: "dropout/cond/Identity/Switch"
  op: "Switch"
  input: "max_pooling2d/MaxPool"
  input: "dropout/cond/pred_id"
  attr {
    key: "T"
    value {
      type: DT_FLOAT
    }
  }
  attr {
    key: "_class"
    value {
      list {
        s: "loc:@max_pooling2d/MaxPool"
      }
    }
  }
}
node {
  name: "dropout/cond/Merge"
  op: "Merge"
  input: "dropout/cond/Identity"
  input: "dropout/cond/dropout/mul_1"
  attr {
    key: "N"
    value {
      i: 2
    }
  }
  attr {
    key: "T"
    value {
      type: DT_FLOAT
    }
  }
}
node {
  name: "conv2d_1/kernel"
  op: "Const"
  attr {
    key: "dtype"
    value {
      type: DT_FLOAT
    }
  }
  attr {
    key: "value"
    value {
      tensor {
        dtype: DT_FLOAT
        tensor_shape {
          dim {
            size: 3
          }
          dim {
            size: 3
          }
          dim {
            size: 64
          }
          dim {
            size: 64
          }
        }
        tensor_content: "\367x\'\275\031\306\212=f\217w\275>P\230;\006V\270:\337bZ\275;\335\233\273\226\330\345<U[\227\275\365\362\215\273Y\323\250<\204\267\200<\324\027\243<x\353\246\2759ao=J\264\025\275H\334\034=?\246,\274\001\254\"=\257g\354<\240\244\275\274\253zx\275\037\333~=\310%7<\334\n\256\275i\347\022\2752\232f\275G\300\345\272?\347\205=H\002p\274\230\3111\275\345\034i;\010\017\177\270\030I\032=\375lK:)4\200\275\200\245\226\275\235\267k\274SJP\275\255R,=\335\311W\275\306?\276<\220Z\274\275\3102\002\274N\024\217=\177g?\274\\D\322\274\016\252x<\373\337h\274\344\375\201=`\302\265\275\355\"\204=\037\367-\2751\346\373\274W\372\026\274?K\325<X\255\231<\346\213\223=\010,\232=WM\205\275\n\223.\275\302,\320<^\203l\273/\r:\275\037\204i=\031,>=\361\223i=\244\235\214=\r\310\016=\263\210\213=O\333s\275\0075\276\274\311\037R<\253\264S=\231\312\242\275\'\256T;_\345#\275\"\r\230\274s\221\017=\257\032V<0\367u=\342\346\362\275\016\235<=&\321\000\274\034U\334\274\001:\252\2753+\t\275\2420\037\275u\017\022=\360\245z\274\001v\333<\320\260\357<\216\334\037\275\363B:\274\344\317K\275C\332\234\275iY\"=\314O\237\275?\220j\275N\262\006=\0049\200\274\275\322\223=\013=J;fp\204\275 \250\325\274\325\305r\275t\257\341\275\025\'#=5\246\025\274\030\200W\275|\203\276\275\304@d=@jJ\274\214W\211;\352\272\206<I\342\253\275\357\216\363\274\302\010\251\275\n\0016=\225\013s\275\237l$\275;\022\306<WZ\235\275\342\0326\275\007D\250\275\224[\231\275\270\227\333\274\345mU=@\"\021;*Z\206=\367\324[\275Z\263\221\274j\365\271\270\220\000,=2\177\365\274\203\222V\275\000i\016<`f\204=\"\017\217\275\311\3738\274\234]r\275\200Z^=\200\335\222\274\204E}\275\267\3009\275\272\\\345\274\n\234:=\206\222\221\275)\203u\275\300Y\030\274\275\207\006\275\210\332 =\352\027\201=\3007\202:|78=\005\277l\275~\323\031=\240\320R\275 \341\';\306\325\361\274\314ia\274\2422S\275\276\301\021=$o;==\272\"\273\246\211T\275\326\316h\273\230\232r=4\373\212=\036\251t\273\370\312=<\020\213\341;`\315\026;j\3318=x\365T\275\326G\350\274\240;<;\020\271\'\275\272e\203\275x\266\272\274\320\361\317<\210J\016\274\210\244l=\357\262\370<\002\262k\275\354%?\275Pq\005<\334\372c=0XL=\360\3536=\366\354w\275;\332\215\275Ri\270\275\235\007]\2755,P\275E\266\302\2741P\211=?\253F\275\316$\272\272\361F\000\276\265K\223=\026\365\327<\377\003\256\272\033\325B=.I\364\274\320{\334\274\240H\300\275\315@(\275\n\351\227\275\226\355\235=\231\035\036\275\356\211 =\376\372\n\276:\210T\274\200\346\303<\250\242v<d;v=~\352\371\274\214{}:\nw\235\274(v\003=\241uh\275y\317?<\263V\243\275\370!x\273\n\025-=[c\262\274^\311\232\274\277x\363\273\374=\264<\312 \341\274]\025>\275\204B$=\277\374\277<iL\035\2750r\356\271\334\316\207\275<\376\243\274\363\022O\274\022>Q\275\225\277\234\2733\2578=\026\370V\274\313\323\260<m\335_=(\332\343\275~J\211\275&\360\313=)X\304\275\244\365\337<\020\025\243\275h\310;\275X\020G\275jW\324\275\026\202\301<9x\272\273#\271\016\273\037\001\224\275\241\215\371\274\366\003\240\274\365\367R=\323AC<[\271(=\212G\214=\363\376\363\274T\275\370\275\255!\013\275$S8\2746\004\226<\0324\250\275\"\014\250\273m\010i<5\362\221\274\265\223\254\275\000\327\351<\310\210\345=\353\273+=v\370\332\275!\375\326\275\0322o\275YC\002<\005\237H=\230\217q\275\306]\266\274\203.\211=Z\014q=\301\'\200\275\301\315\267\274\374\353\206\275i\014\246\274\003\257\306\273D\225\341:yqs\275\227\324,\275\026\245\344\275v=.\275\246\303!<\330\277\254<4\033\332\2740\201\203\275\202P\007<\212%\351\274\324\226+\275\316j\'=A35=\335\316\243\273\0139\363\275?\365\316:\373\202\234\275\334\003\266\274.\307\275\274O\343\306\274r\335)\275(&~\275\003\334?<\335\241\n=\253\017\212\275\227\245u\275.\206l=\003E\361\274H\202\366\275\211L]\275\264\247\276\274\334\344\274\275:8C\2739)\227\273\264d\021\276gx\216\275\267\361Y\275\217[7\275Gk>\275)\3507<~\221\343\274I\221\226\274\273G\235\275\306\207\315=T\373\003\275&\243u\274\272\262\241\275\362\304\t\275\272\375\302\275_\037\310:Pi\365<\356|\355\274\370\265\237\275p\337&\275\237\301\021\274\245;!\276L\017\255<@\017\363<\350\343\204\275W\302:=\247\240R=\001\030e=\377\317v=\226\005;\275\306 \353<N|\246<\372\'\337\275\375\336\204\273\277\242c=\034\214\234\275\243\026]\273\033\000S\275$\312\265<\333\220\261\275U6!\275\n\"\245\275\253\331{\275|I\032=$\205x<\303\250.=\361/:=\375y\256=lJ}\274\304A\004=\304]\246\274\027`\365<\374\214\234\274\224\372\256\275wSL\275\037\210T<\364\210K\275GG\364\274\0251D\275\2032\013\275\274iT\274\351\241[=7O\301\274\235\260\252\273\273Ec\275\351\322\345<\3451\374<&\014 \275MB9\275\355\\}=\0042l=\300\350\"=\234\031\200\275\355^\274<\245\317\217=\361\200^=\n+N\275B\307\026\275`\375\252<Xf\332<\035\032\207<erM=\3405\\;\315gk\275\2122<=\021(\304\274\235\'\332\273\237\013\005= \356\023\275\177\377\005<\t\034\215=]\245Z=\313Bi=--\216\275\342\337]\275\024\240G\275\274!Y\275F>R=Y\377\035=\324\211T\275\031\355I=\277\032\224\275\204\353:;\373\327N=c\263X\275P\275 =\276\246A\274\n\tB=H\017;<\337`\204\2752\035\003=\300p\254:+\213t=d\373\276;\357\212\242\274\006\337M\275\274\240\216\274vR\026\275XJ\225\275\302O\216=H>A=0\3356=\275\204\303\274\003\375\224=\204\034\220=\247\351G=A\247\232=\236\252\016;\210\303O\2758-}\275\324\225\036\274\221\031$>\306\255q\275\227/Y<\022{\220=(\303B\275R8\312\275\252\014\001=\352d\262\272Y\033\373\273\333\322\251\275(\tU\274\317\202\374\275\253\017{\275\031\341\016=-\204\000\275\250\300\367<\2452}\275\254\3361\275\r\246\232\275\000\370\236\275f\034`\274\373\346\020\275\252\035%=\232\354}\274a\322\264:\267\376\016\273CI\014\2738\033\027<\003\332\035\275 \013\242:\016\230\242\271\242\243J=\321\271\352\275\212\027\001=\254\323\302\274I\224\305<E\020\232\275\321R\342\274eY\321<\261\246\306\272\262\026\203=\005I^<\307\345\375\273\222\345\231\274\261-\256=\034\314F\275\253\225\341<_Z\273\274\265\246\250\273\266\206\370\274\025e\334=&\3305<\372F\231\274\020\210\034\276\t\323\252\274\2602u\275\322\214\215=\241x\257;\036h\227\275\372\257\031=\003\274\316\275QQ6\2758\206\303\275\237yf\275ab1>F\000\205\275B\227E=\270\350\241=\340\232\326\273\240\311\202\275\251 \212=t\005\214\275\244\206\257\275\250\315~\275;\274\252<\230\273\222\275Z\370\306<\242w<=\025\314o\275\270\254z\275\005\222\342\275\241\377\247\275\376;\025\276\217\242\220\2756\363\"\275~dH\274Q\2375=7\232c=.\372B=S\217z\274\365\375\031\274W|\315\274P,\232\273\220\366P\275\006G>\274@d\242=\221;D\275\2752\237\275\266\262\244=\275 :99\272\205\275T29=!f\\\275\005\\y\275G\0062>s\270\225\275\010\240\335=T\314\313\274\005S\243\273d\303\270\274\315L\027=X1\273\275>\032\245<\256\366\272\274}\025\032\272/[\'\275\221Rp\275\240\301\004\276\025\261\026\276mg\227\274\350}\307\275\233\027\207\275h_\210\2749\220\214\275T\013r\275\225\371#=m\365\204\275\262\240I;\031\326\216\275\036\010\003\275\260\300\226\275\022\310\334\274\265pk\275DN\267;\003\315)=\376`\231=n\343#\275\034\377F<\273\233A=>\273%\275\354\326|\275B$\217;\033\230;=\277g\222\275\263^\303<bmH<\210\213\327; \342\013\275\266Bt=KGl\275\n\260p\275\273\030\373<\374\341\230\275\033u\362\275u\317\263\274~\322h<i%\177\275\350\212\230\275 \001\234\275\216Cm\274:r\236=\337S\301\274\217Bn\274\373,\237\274\027\203\001=I\312\224\275\037eW\275\033\263\201=\341\\\322\274|\245\277\275$-\261\275\n\272\220;d~\326=\335\217]\275\303{7\273\270\330V=g\263\244\275\365\302\210\275olC\275\353G\317\274\371\327\267\274\366\262\224=MWS=\323\370!\275\334\346E\275\216\317\211\275*\361\t\275\332\372r\274N\372\226=*\271\262<\301*<<H9\256\272\347r\001=w\3172;A{\237\275\247\231H\275-\357\277<e9\252\273\023\200\315<)Af=\240\272\231\275B^\206=7\370\001=\3418Y=\032\204\301\2725\224\024\275.>\330;\216\221\246\274|\230/=\005\301\232\274\007\2060\274%\366\032=%\237.\275\002\262\2179\357\006\361\275?\345%\273\360\363\256\275@\266\217\275\035\n\205\273\312\362\262\275\'\003\003\275\323P\025\274\225H`\2756\254\225\2744\235\007<\230&\n\2756\246\263<F\233\r\275\013)\021=kQ\241\275|\000\005\274T\203\t\275\243]\311\274\027\023/\274\220\265%\275g\312\253\275\254!\215\275\251A\200\275\'B\320\275\331\362\303=E\032\274\274\031\031\230<\035\363\177==\254\222\2751-\321\274\304\246\262<d\310!\275\360\275\021=L\241@<\361\355D<\375bS\273K\214\327<\ty[<\255\374\013\275\314[\350<\321\342\200\275\026\n\023=T\"\253\2756\317\207=$\332\031\275\217\316f<8#\202=r\255\225=U\370\272\275,\367\227\274\217\212\263=\252\345\020=M\\\241=/\322\223<Y=l\275\347\336\351\274\342\266\250\2757\304\217=\356w\010=\366_\332<\267jW\275b\251\261\274*\242j:4q\223=\262+\007=\362\023\275\275\305\351\304<7Z\217<3\320\204;\266\321Y=\351\201:\275\227\277O\275\351\370\335\273\253\347\212\274m\207m\274\333\025Q\275\307\023\235=x\375B;A\263\335\275H2\017\274\230`C\274\213.\207\275=\235\313<\266Qh\274\017\201\235\274\010\234%=\277I\316;d\t\223<\214\265\326\272\272/~=c\342u=\312hw\275l\373\274\275\237\270\207<`\256n=\005\360\222=\253%\320<|\322\033\2758%\240\275\007\266\031\275c\244\261\275g\252\354<\027\3621=\202\010\025=W\201\334\274\351\032d\274\274\305\021=,{\247=\374(#=\375\311u\275\205nz\274~B\330<E\316A=\337\273y=\350!\035\274\203\215\037\275g\2630\275\025e8\275\257)\200\275m\230\246\275\355r\346;X\200\242=\354Ca\275\031\343M=Y\271\375;\250.\r\275\240\031Z=~\230L\275\333\332\352\273[\'\253<\004V\033\275b\"\350\274\210\341}=\364\0278\274\306\260B=\301\325\310\275]\"\250\274\034\003}=\244\032\267\274\"\275\206;\2540\310\273\024t6=\025\032\205\274@-\277\273y\337X\275\023\211\313<Y\225t:\251\204+=F\025\002=\352\255H\275\342.\364<\330\3370=\347LF=\317\201\032\275\2058\021=\252\000\335<zh\r\275N\002\213<\226E\242\271\037\350H=q\300\354\274\326\"\212\275\275{\013=g\324\312\273uik=m\251\351\274\032\251\250\275\023~\215<\"<\236\273\322\006\224=)\335\027=\250\225\022\275\021y\362=\330\344R\275\227\031\207\275\343\377\213<\264\t\236\275\320\013\\\274\221\273M\275w)\237=\251\214A=$&9=\010u\210;\370\0322=\340\356\255\275$_\216\272\000\206\253\275\370\305L\275\362[\211<\230\2309=\374\016\017=\203\005$=5\"m\274\032\222}=\352\377\315<\255XO<\353[5=\261K \273\003\013:\274h\034j\274\371\263\223\274x\031\224\275\346\364X<\256\230\271\274\222J\026\275\310K\224\275\027\207}\275\364\265\252\275c+0\274\245\017o\275\314\005;\274\'X\267\274\224\030B=-\242S=x\002}\274\345-U\275\245\301\222\275\240\315\220\273\247\227\232<\035Z\312\274)\024\274\274Ob\263\2750O\204=\316\357\007\273\023\341\035\273(+\312<\235\231J=iu1=\331\023.=e`\315;E*\365;\004\255(=,\232=\275\027\3643=Xm\000\276bfo\275\265N\371<\262\327p\275\200\205\237\274\350\307P8\327U\035\276!\260\247\274\353dk<\202\335\236:W\341\220\275.\337\236\274\261\265\245\2757:\007\275\235\031\203\275\356\251\244<\255\217\';\321\327\201<d\'\331\275\031\377\320:\207\206\231\274\321t\020=\265G\277\272\362\355\243\275\277\3747\275T\310U\275\344d\021<\306\3766\275X\010\354\274\312\205\363\274\027\206\261<om\311<\035,\303\275\302\341+\275\244HA\272\234\222\316<\026n\274\275\324W\327\275\333\230\222\275\204\226\017<=\273\223=r\007\007=\230\340N\274T\214\351<\315\315O<E\243]\274\376\0171\275\362\017u=E\364\260\275\335se\275\317\201\324\272\237T\360\275\363\234\205;\205i\020=\311)C=\337MI=b\352\t=o\020\323\273\031\372\373<\224\200\033=\335\373\204<\213\305V<\225^j<=\270\357\274b\321^<\247f$<+\356\246\275\373\355\010\274\334\236(\274\370an=\251EP=\264\343\247<m\247\225<^\001b\275\023\246\333\274\326\222\204\275s\367h=\232\304\r\275\331\351\221;\353@O=\220\261\r=0BH\274\254-J\275/\207:\275*\022E\274X\356q\275\021\272\n<1\200\020=\0256b<\255\020\202\275\262\241\277\275m\t0<\267m\217<\\\367`:\331\216Q=\212\0238\274U\255M\275\224\001c\273$\341\016<\033\255N\275\213\2619\2750\213\224\275\272\345\201\275eU\226;\207HG\275\240\247Q<\273J7\275G\334?\275\016C\312\274\t\202\305<ee\202=\354\274O\275\340\214\001\275\252\333g\275\034\307\021\275\3700\021=&\301|\275:_N\275em\214;\265\023\320\275\237\2777\275V\325\240\274\215h@=fT\307\275`Tw\274D\323\302\275\022\235\367=\205J5>\213B\006<\000:\304=\300\313\031\275.\010\021\276\006`\302<\335\357\005>dH\224\275\243\035(\275\031_\301\274\355X\336\274\r\010j=B\352\0229\207\377m<\324}\230<u\376\201=\245\221\244\275\367%k\275\373\035\264\275\237n\315;W\n4\275?\263\217\275\253\034\334<\351&C=\017\204\375<\325\005\377;\214\265.=\221\001\274\275\376\310\327\274\200;\304;8_-\275\265H\177\275:L\032=f\212y\275dv\344=\'\333\324=9\353\235\275\362\337\355<\2150\177\274]\357\342\275\020\206\312=*\267\346\275\247\274_=n\272\247<Q\277\217\275(\003\004<\273\332\301\275\234o\343\275\027\246\303=\205\215\031\273\t\234\213=\n\355\021\275G\233|\275\205\205\363;\037\261\314;\377#Z=\r\342\221=\322\243\177=\022\255\220\275\034\361\004\274{+\267;\304r\220\273q\322:=\334$\255<\333\315+=N\211r<\375\272L=\230\032\200\272\244#\372\274\\]\211\274b\317\205\275<\355\030\275:$\n\275}\200E\275\316\365-\273\340\330\356\274\266\303\003=P\265\201\275\021H\202\274\202>\213\275\233 \313\274\033\377h\275\251}\371\273+\005\230=)\307B\274\223\351\000=hO\215<\250\312&\275\327\207\336\274r3\227=>\363W<\365\244+= \357\004=\216\353\254\274\226[\215\275\267\357G=\035\362X=\336{\036;N\261\225=y\017i\275\020\\\330<{\332\030=Z\241\215;J\257\302\274\333\\\231\274|\301J=\030\013\320\272N\333T\275\325\233\307<\'\013\036:\212\204p\275\315\324q;\262S\227<\202\033[=k,k\275\333.0=e\275\204<ZtK\275\r!\320\274n\204\220=\215\261s<\272\353K\273\2306@=7$\364<\223X\243\275\277\217\362\273\206\303 =BDd\275\224\322\261=\021\201!\275w\'\201\274\2626\233\273\220j\271\275^\234=\275]h(=\256vp\275\250\317X\275\263\030\212=:E\257<S+\221=\247\357\320<\037)d=\340F]=\354\257\004\276?a\177=\021[\234\274\tU\003=B$\025=gK\025\274\344\251\225\274u\024M=_k\024=\246\263O<Z\035^=\375o\315=\230\3233=\334\n\225<n\352\240\273\330=\332<\233!\272<y(\225=\310\324\365;!\306W<@\253\212<\313+V=\227\355&=\250hB\275~O\270<\247\204\201<\350\007\201=\005G\230<\257\r\027=[d\033\274\330\2011=\367\nP\275CQ\256=\210\035Y\275\264p\026=\302G+=\025\234\245<\253M\334\271\r\340\300<\254C{=@\010J\272\275l\361;\3441G<\316\313R\275\262\357\322\274\037\351\250\275\241\356/=\017r\261\274x\204`\275\261\031!\275\026hW\275]xL=\304-r=\263J\274\275\177\235\032<\3147\366<\313 \217;%h\n=XR\230=\367\252\240\274a\3747\275A\221\007\275i\262p\274\312\373\n\275r\362)\275\252\271.;\345\251\013<f\233*=\'h\255;\t.\222<\005*h\275\371\373\211\275\266k\035=E>N\275\223\376\241;\2175\242\274\261:\r\275\276\247\223\275>\224 =x\017\013\275\217w1\272\212#{\275\251\274\260\275\337\246\r=q\r\222\275l\204\247\275F\354?\2746\326\220\275\323g\310\270\242.^\275\217\247W\275@\032\323<+0E<\317\204\212=\350\321\367\274\016\"9=\205\231:=\322\031\010\275\275U\231=\222\245\206\275&\\\210<\037u\256\274\0238\253;\234\376.<H \202\275\370yG=\232\3560\275\264?2=\245a:=\344\377\201=I\274\316<\370\021\002\275\032\000\315<\353\332\235\274\325m\336\274\t\014I\275\345\\\300\273\210\030\231<\010\345\222<l\210\014\275\347Eb=\372\332\241<xc\242=\324\367\016\275G\256\035\275\340N@=\024\017Z\275U\016\257\275\"0D\274l\t\245<\336Q,=R/Z<\305\332U=\256Y\024\274xA/\275b\275\235\274$\257D\274\332\314,\275\251\254\203\275\001K\366\274\357J =\030\371\026\274\371\003\263<2\323\034\275\032aP=L\265#=\367\030@=3\0359\275\020Z`=b\305\376\272>(\356\274\374\363\233\275\272\030+\275C\372>\275\034t[\275\206\226\"=[\001\010\275\341\322\344\274k \235\2758\340\314<\313\227Z\275DeF\274\322\360\353\274\333<4=8I\314\273\025\334\206\275\264\036\246<\230\214\027\2755\214\305\275F;\340\275\204v\330<\243-\256\275\232GA;U]\000\276\374b\350\275\344\276\311\275\244Q\344<N@\207;a\036\301\275\024\177\342\274\240\223\021\274\225Gm=3M\265\275\245h\r\275;\240\254\275x\363\004>\315b\016\276b\022E\275^\342\034\275\363\007\033\275\311\2426=\253<\006\275\353P\344;\177\233\371\275%\243\351\273\204k\276\2751\267q\275\345\233\006\275\217\315\224\275\017\000\024<\305\235\320\275`WY;=>\340\275\346i\020\275\373\0000=\337\337\272<z*\270\275.n\014\275\320\350;\275\221\356\257=\320<>\275\350k\302\274\367\323\346<\236\335\001\276\0050\355\273\002\223N=[\214\323\275\273\212\036\275\204\272\362\275|\367\014=\026\325_\275\365F\037\275\'\374\010\275`\230|\273\')\331\275\t,\265\274w)\304<\227\306\245\275\230L\230=\340\334\330\274\362\254\021\276\2130\037\276\235U\032\276\233\020\315\274\235\235\020\275\213\247\034=\262%\224\274P:\014=\373\334\355\275~\246!\275\005\201\254=H\363\304=\344\241T=\303\336\006>\267\2234=\303\264\255\274\264R\365\275r\031\231=-\263\221\275[\321\037\274\236\320\273\274\177\356K=\331\256\020\273\367\256\371\274\263\311\307=\316?\236\275\356m\006\275\370\246\304\275\370\271==\347f\355\274\014\237\227;\272\240r=\263\371s<\377\335\363\274\'\025\013=\222\266\214=p\3639\2753\250\253<\013PD\275\330Y<\274\000x\372\275#\ni\275\021z\237\275\356\262]<\316\352V\275>\217B=Ze?<\350-#\275:\2411=um\034\275\365O\013\275\266A\322=uz\345\275\367&\331\274[1]=\t\017b<E\017\232<\241\251+\275\024\315\265\275$v\224=\355\330\202\274d ><\213\311\214\274\032_5=N@\377\275\275\\#\275\341\207\237=m\006\222\275\254\200\033\275\031<\331\274H|\345<\216\013Q\275\3379\325\274\344\204\004<^\345X\275$#B\274\274\265\223\2753t\257<?\264K\275\027\270\335;e\362\373:HNm=\366\327\313\275\310)\014<\250\354@<M\037!=C\363\250=\211x}\275\305N\230\275\027m\211\2752\250\241\274\036\373\227\274\356;Q=5@\207=f\025\242<D\233\371\272J\364\220<s\003\211\274\367\310O\275\213\247\234\275SZ\302\273\r\367\270\273 \316\235\275)\302+=f\210@=rF\347\274\022\001\307\275\262[I\274\356\272L\275,pz\273\346\336(\273\203<\224<\2365\262\274A\230_<\037\234A={\363~\275\361\203F=\303\362f</I\034\275of\215\274\177\310\304\274\241\207\215\2756\377X=h<\000\274&\271C\275\375\033%\2740Q1=\373\360\306<\216\327\273\274%\275}=Y\t\023=\003\241\223=\226\347\271<\024\246\023\275\271\377\365\274\353yE=\354\205\353<\320\260\034=\232/\036\275\037\317R=\025m\246=J\330\n\274\264e@\275\214vf;\020\014\204<\250\265|=\022\272\004\274\343\271S\274m\350\324<\371\3028=?\342.\274\n\345}\275fP\020\275\344\321A=\260\354\261\275\355\206\241\275B\317\362\274\201\211r=\231z~\275Ba\325\274\251+1\275\271\361\331<\335\327\242\274\0251v<\036\300g=V\247\224<\267Y~\275\265\204*\275}&\232=\005\246Y\275\362\223r;M\035s<\307Y\255\275\346\240O;\005\020/\275v=\341<\243J$=\022 T\275G\227\220;\334\321\311\274\036cb\275\034/\216=Wh\265\274\250AC\274C\016w\2758K\020<>\332\037\275f\343\313<\365<\013\275z\274g\273\334(\270\274Jv\246\275TIa=\335_\005=y\311\202=!\351\236\275\353?\371\273\227\251%\275uQ\223\274\302\257\'\275X\370L=\361\035+=\322\216\264<\366C\264\275U\272\332\275\330j\204\275h\373\235\274\300\354\212\275\360\231\330\274\254,\254<\341\247\014\273\355\017M=h\261\244<\035\242\273\275\273\241\252==6n\274\037\233\234\275\252\316\032\275W\352\031\275S\365\326\274\"\020\232\273\203h\215<n[\315\275\273\005\216\275\256\036\327<\347\270j\275\222F\\\275TE\274\2734\266\376<\302`\256=\003]a<\205\242D\275\200\267M=\253\r\203;\225\232\371:\366G\215<\346d\210\275m\342\342\273p@\214\2741\220\253=3\037z\275\373\332D\275\370\256\215<5\352\256\275o\226\342<\274\314\313\275s]\247\275\007\377\010=\025)\211\275\233I\332\275\223\260\037\275\364w\305\275\304\027\320<\226\373\243\275\"z\335<B\216\341\274\303\3161<\333F\273<\374\r\210\275&\017b\275~9\224\274<\355\025\274%\002\213\275!X\242\274k!\016=(c\215\275ER\355\2753\256\213<\311\017:\275`\241z=\227 I\275\233,\\=\375\253\227<\374Z5<]\237K=91R<\263\367\273\274o\234g=w\237\020<|\032\r\275\022\"Y<\3430\334\274\251\014v\275f\355\221\275\351\317\032\275.\377\207\274\235M\006\275\237LY\275\355\264\203;7J\303\275Jg==<\257\255\275Q\000&\275\267\004\004\275\025\005F=\226\274i\275\010n\364:\311bk<\222\256\000=\307E\210<\314\220\013\275\020\262\037\274\377\034\010;\373\272\236<\346|\203\275\341\225\261\275\"\024g\275\277L^\274\017\256\205\275\264\317e;\360C\303<\265\022\234=4\n\'\275\265\367\032\275\362:9\274\203^\352<q\n\016\275\016O\204<\321\225\360<\023[\263\2749p\207=\355\322o<\017U\273\275\357\325\n<\" \377\274\341\225\260=h\020x\275\272\367\'\275\346\325\351\275Mz\245\275\372\027\263<\301\303\354\274?\236\032\275\266Y\302\273\244Vc\274\2668\r=\340\347\370\274I\361*={\255\303\275\357{\230\275\255\336\201\275?\310\343<\360\014L\275\225\333\313\274\270y}\274\2702\256=g\025\222=tJe\271=Z\217<\246\204\346\275\013\013\003\275\374\360\024\274.\332c=\225\035:\275+\244\250;\300\330\200\274V\002\024\275\272\004\344\274?\351\205\275\033w`=W\344H\275\245qW=\360U\241\275X?\263\274\266\211\236\274i\332\232\273\241VG\273:\\l\271\341[T<\200M\236<\371u\026\276;P\224\274\027\236(\274q*$\275\035\254o\274b\216\211\275j=\203\275V\307\354\275\314j\310\275\355?f<%\001\t=\370\014\233\274\320:v\275\210\002\245\274\304uV\275\017\236\242\275\331\202u\275F\331\372<\242\313\314<J\024\213=\2357\313\273N\247\302<\362*\231=\317\300\030\275-(\353\275\314Bw<}\177\213\275\343\342\323\274\265K7\273\373)\240<\214,D=>\344\222\275&\300\330\274X\2100=\010\"J=J\013+\275\361\\4\275\007Z\250\275`Su\275\037\311\312<\022\276\024<\335\310\005\275R6\225\274\335\322\224<=\023\032\275\206IH=>\262\233<[6k\274\361X\251\275!\310\347\274\376\242\320\275\2551\376<\353\020\006\273*\t\305\272\254#\233\275\261\213\020=O\326 =qiv\275f\327\002\275\021 \036=\217\023}\275\263\371g\274F_\023=p\306\255\275:\206\254\274\332\252\243<\n\336&\275\342F\223\275\255lq\275\373@-\275\352a(\274\010\025\316\275@Ok=\036%\276<\217E;\274q2U<\210E\202\272p\016z=\207c\t\275\3329\235<\300#P=\271\022\202;E\036B\275Y\224\306<{-\374<i;\252=[:5=X_\355\274|\271e<B\205v\275I\200\351\275\001\220z\275\3207\222\274\265\360\213\274\000\347j=v~i;6\225\006\275\034G\252;\007\360\213=;\221\322<\2125\032\274\27642\275\271\255`\275\227\2460\275\262\257!\275\354ps=\212\213\021\275\262lh= \025E\275\325\2631;\333\017\022=#\347L<\010:\265\275\003\272\310\275A\323o\275W\2208<\264\371\300\275\354\360\263\275]\3245\275\030/\017=\022\207\021\276\307\300\t=\364-$\274\366D\201\275u\333\345\275%\034+=\222(V\274\254\227\244\275\255\214n\274\356\314\247\275\204D\030\275\200\200Y\275\035\355\205\274s\217\337=\260\"\023=\\AP\272\356.\000\275o\230\242\275>\352I\274\376\355#<S\205\275\273Z\0241\275\346\226\212=s1\215=\037\271\364\275v\374\006\275\314\334\316\275c?!=%\270&\275\252\003\227\275_\023\014\276\"\005\236\275_~[=\253\275\265=KR\331<]\330\016>\037\367\214\274M\030+=S\307-\2769\"-\275?\032\201\275\321b\347<\212\232\002\275C|\232=O\251z\275y\316Z\275\240\014}=\330K\331<\325\201\313=\316P-\275ALS\275\361\246\356\275<\345\276<\r\210\306;\343\341\216\2753\244\215<\345\200\221<\374\334e\275zPx\275&\306\241\275\342\022F\275\342\320?<\213\375~\275\254\3662\274\221\255\206=\320\226\001\275\225C\341<\t\314)=\272\3220\275\343I|\275u\307\247\275\270W>\275\2248\263\275\355B\217=_\217Q\275n\220\217=\374]\347=\346%\031\275\257y\243\275\365\352\020\275\022?\034\275~\362\"<\2722q=\312K\356\275(\224\256<\207\262\365\275\020\001N\2762i\372\275U\321)\275\260\330\256<KR\215\273<\336]<\237\005\177\275`\311~\2758\026\007\274$\024\277;X\355\241\273\307\202\362=\\1S=-\277 <\214%\312<3QX<\264G\003=\206\362\205=~~\'\275p\311\230\275\333uR\275\234\346Z\275\005\000Z=\tB\024=\253\323\222\275c\000\352\274\343\370\343\2736l\202\275\346\361\302\274+\274\242\274g\354\026\275RPj\274\212\311\340:\006\340\323;\247\216j<TF\300\273\373\353\274\275\267\354\027;t\372\324<_\362z\274>r\350<9L\201\274\302\352\223=\344\272|<\213\255\037\275\335\2657\275`$\004=\nHV\275\332}%;\372,\275\273\3108\330\275\264_\035=K\020\205\275\211C\207\275\003\036\323<D\322\235=\3777\r;;\357\213<\202~\271\275\356G\022=\267\0036\275Vb\274\274Sa;<\237\236\222\274\244\204\354\274\201\315%\275~\001\350<\271\355\026=e\362\207=?\371\310<\010q+=\030\3233\275\014\341\361\274\036\223\227;\372^\214\274\274\205^\275\341jU<\350D\265\273\246\0217\275\245\270,=\217\312J\275|8x<\007K\351\273HL\234<\'\301\231\275<&\250=\366Q\270;\211\356\357\274\206\247-;Q\3243\272\006\200\205<\272\'\324\275`f1=6\220\224<>\200\007\274/\371j\275\333\260\223\275\016\210U\2756\256~<\224\256\371:\363&\211\273-H\312<8\017\321\272\001\370\227=:\332\221\274\205#\205\274\205\034N\271\200e;=0\310\355<\022\200J\275\266y\200=\310\302\031\275\026\247t=\207\246g<8#\361<k{\026<\304\207\216\275\035\001\272\274\263x\033;[r\200\274W\253\270<9,\"\2750`\262\275!\377\302;\206w\200\275\365\257Z\275(\237H=Fx[=\247s]\275\241)\263\2758b\014\276\246\275\301\275u\361\304;\177\331\344<)\336T=\332\207>\275\327>\367\274\356\204\327\275&\262X=\033\377\240<\327c\034\274kW\246<\2322\177=L\365\230\275t\232\246\275T\324\t=\026\021\242\275\357x\370=\311\366\206\275\236\236q=\300q\254\274\343\374\274\275?\017\370<\324\367Z;\024A\010=\202\026\t\275\006\266w\274O\367\367\275\262UX=\247l\220\274\341@\363<Hb\266<h\254\024;\203\177\000\276\246v\302\274{\005\233\274\2764p\275\001\302\030<\177\232_<\213\350\351\274\305\304\237\275:\356\262==\014u\274\256)8=CmU<)\315,\274:\304\254<\264\337\022\273\222@\245\275\203v\003=X\226\326\274M\332\212<\371\315\n=6)\377=\003\3362=g/\216\275\317\315\\\275\357\263\303\274\352\310\013\274\272\350\263<\333\034[=\217\013\377<.\350\251\275\214WD\273l(G\274\212\255\r<\257\354i\275\037\211\215\275\332\342\024\274\236!N=\206\211\246\275Uv\301\275\313q\003\276\373\364s=\367\341\215\275\334L\207=\352$G\275[\320\001\276\214\322(=\206\323\275\275\306y\375\275\327\256#=\376\237\251\273\333i\253\275b\014\245\275\366;\336\274\242\277\211\274\232\001\210=\225c\214\275b\265\370<\326\034\332\273\216\231P\275\016Q\366\275\023e\245=\353y$\275\0233?=O\'\352\274\353h2\274\273\014h\275\321k\346\275\365\261j\275HrV\275A\r\271<\177o\016={\034\262=fv\236\274mu\031\275\010\363\227=\222\306\311::-V\275\230\245\205<c\002C\275\213\251\336\275\351~\004\275\024\\\227\274\223\277\017\275}\013\350\275\3010\235\275\tP\003=k6\242\274h\023\266\272>\267\245<\272\003\213<\026\377\237\274\001\257;\275i\212\356\274by\231\275C\366/\275uA\201=7\301\257\275\225L\311\274F\303R=r\242\226\275\301k\222\274\244\324:=11>=\001a:\275$?=\275\222$\243\275*\272\337<Y6\214<\367&B=\032\261R=`G\324\275\260K.<}+^\275\237\252\226\273\243r\234=1t\347<\004\243\002=\203\002\313\274\325L\240<3q\362\275\205\334\224=\264<\234\275\213\014\213<\235\257\006\275\354\022\363<\207\355S\275\"\216Y\275\224\016\211\275\013\037\312\274\237f\275\274\023\332\004=\005j\037\275\333kq\275XI\240<\210\343\363:\225\310\002\275r\205A\275\021k\036=`r\366\274\351W\336<pfN=(\200\026=I\340J<<\370f=\272\244\307\275#\211\327\275\250\241\213\275\314\202\301\275[C \275\321Y\264\274p\365V;\370\035\341<\376\202|\274#\n\246\275\273\344<\274\345T\272\274\201c\342\272\247;\211\274\373x\257=. \250\275\034I=\273\'\327\226\275\256\035\207\275\224\313\026<\322\035\340\273\204W\336\275\354\350\313\275\303\342\217=EI\001\276Z\212\013\275F\213\312\275BC\363<\247\371O\275\225l\334\275\351\315\300\275x\352\240\275A\347\013;\223B\004\276\364\341\220\274$\336[\275\237\030\314\275\302d\227\275.\332]=\323^\\\275\350U\322\275\274\324,\275-Z\340\275;\215\267\274\0338\237<4\207\253=x\254\030<\337\271\003\275\365\252\270\274\225\305\025\2758;z\275\326\t`\272\240r\316\274\035\344F=\344\267Y\275\377\237\325\275\236\203;\275\312x\211\273\343\317U\275j\007\263\275z0\357\275\362T\245<Y\257b=\027X\336\274O\312\246\275\241[\330\275\361g\376\274\357\037\236\274\267\366\211=6M\'\275~k\241\2750\265\032\276\0377\350\2741\274A=\323\303\270:b\377b\273\037\006\333\274\310\355h<>.\224\275\366\2723;\326\272o\2746IF<\255o\203\275Sf\263\275\250Q\330\275\340\264O\275IBt\275\342\205&=\227\332\266=\245;\303;\216\037\330<gK\365\274\271e\007\275\3726>\2755\360i=\374\334\214\275\243V\270:7\341\204\275\\\323\274\275\002\352\253\275\034B\220<\223D\367;TN\211\275@Q[=\352\036\304<\230\251\322\2747\336\274<\223\210_\275\324\201?\275\361\tP\274F\232\375\274\277\326\'=(\366]\275\002\033\365\275\036\333\237\274\026N\257<\332p\316\275\226+\006\275\277\303p\275\232\312\321\274\237\200\251=\367\326\245\275\220z\331\274v\345\225\275\230\006^< \262d=\315\323\213<$c2<\266\017\324<\030\000\214\275\374\352\267\273;r\200\274\n\322\304=\2021\277\273\206\313\340\274\250\377\t=\207\rn<\257\241\314\274\303Wy\275\375\224\347\274\264\350\001;\004,\200=\256\253\255\274\n\274\234;\204\363\323\275b\007\245<\304.R<\273\240q\2755\277\022;\257\3062\274\242\372\201=\021\342<=\325m\001<\006\215p:q\346\257\275\327\ts<\270\263x\275\352\326m=\260d\035<j\320W;\273\357.\274\271B\371<\255\265j;\223\244\023\275\377\023n\275\226\246\211\275w\305\367\274J\207;\275\327\320i;\261e\202\274$\255\001\275Y\n\300=\375/\231\275]\344\374\274`\021\352<\314\032\220\275\326\210\205<K\235\213\275\243f\013\275rk\375\273\205\334\224\274&\237L<\001)\376;\022*$<N\302R\275a\204\223\2744]0=\211\212\237\275\236\227r<\n\352\303<H)\205\274\362\006\037=\307\020\001=\257\267\232\273\332\2212\2753\260\312\274\277\323w=\232\300P=\243\'\271\275\357#t\274\314\321\236\275\355\350\250<{A\020\275Z\347]=\301=]\275\320\302c\273\"\324,=e\354\237\275\341}\321\274}*\223\275\035\354\326\274\275=K\275|\212\241<J\024\217\275)\"\263<*\235\236=\037Q\277<\371\275[\27566j\275\370B\353\274\006\376w\275\336\271\260\275\020\240\252<\370\261$\276\023\335\035\275CI\217<op\223\275\3760\214=\342\031\340\275{H\342\275SiS\275XO_;\014\300\242\275jF%=\357\206\322\275\327r\202\275[\337\016=\263-\270\2752\006V\275N\005\016=\026\372\344\275\363\271J\275\243\016\206\275\272\202\223\275\317\302\217\274I\\\230\274\353=\347\272\330z\324\275s\346\022<\3051\346\275\3708\214=\306\207\225\275\371\002\206\275t \334<\3014n=\223B\2719\231X\251;\036\330\200\275\265H\377\273\300\021\255\274]R\332=8f\356<\252\254\231\275O*\221<5\361\237\274\346G\244<\020\221\317\274\212\250t<\377u\213\275\217\375\300\275\305\300\002\275\247M\273\274\317>\265=\310\233\230;7a\332<.q\255<\204\022Z\275\006\016\237<H\017\t;\341v[\274\330\311n=~\321]\275\260\236\021=\177\016U\275:\356|\275\315\304\320<\365\357.\273e\032N=IK><hf\022:\025N0=$2\251\274\007K\022<\3617\257\274\266\005\376\274\225L\002\275(\356$=\370\251\217\275H\034@\274-\341\364<\360l[=\000\266\350\274\005\232z\275A\230\231\275\3753\266<9\265\206;\326\333\223=\253\353\036\2752\177\242\272\240i\232\275\220\230K=\317\302\233=\363\004\314<\317\242\352<-\326\204=\352\177Z\275\037u\n=\237\265\245\274\353\360\235\275\300\237\3329\262\362\362;\332\351\217\275\262\206R=\254\\4\275\305E%=\250$\243\275\035\321\302\274\254k\005=4\341z\275@\361|\273\304\027\230\275T\021\257<T\205=<<a\207\275U\345\330\274\214\335\315\2752\017\352\275\025\rB\273u<\177\274BH\264=&\231\313\275\230\277y\275\324\241\315\275~ \370=E5\230<\226\312\033\273\303\372\000>\242\322b<\275\024\005<\304+\004\276\305\333\262\275\235n\366\275\223\317\177\275sV\022\276u\261\225\275\350\003\260\274\014Nc=\353&\241\275\247\255\310;Gg\274<\247zM\275\000i\250<mR\313\275\246\345E<\n\232\227<\240&X\275\037O+=`\363\241=\027M^=\003m!\275:\226\005\276\320\362\002=\352\'g=\330\021\233\275\256\212)=\221\330\005\275,\207\232\275So\330=\357\357\257=\377\2664\275\034\254\017=M\260\360\2758\020\211\275\"\374\336\274\264\371\336=\311r\344;\276k\343\274\250\210\217\275\362;o\273\321\233n<\265\"\214=\rC\004\276z\325\351;BH0\275\221}\204\272h\337\020\274\206\225\331\272\001$\002\276\005\231\302\275\311\316\231\275\206\217\263\275\267\221\300\275v_\233\274{\245{\275\267\026\203\275F\257\024\276\300\354\326\275/7f<6\376S\275\251A1\275\021\261R<\312B\213\275\236\245[\275b\023\244\275\315\243\242\274\345\250\262\273\004r\307=Sc\236\275\'\034A=z\265\n=\005K\211\275\025\200*\275A\024&\275&K\372<S\324\344\275\313\232\377\273\340\232=\275\351$N\275\375OA=\\\256\240\275\205\377h;Wh\304<\234\265\364\275\'\375\240\275\323K\340\275\334 \257:b\313\352\274\344\031\246\275\325z\263<X\271k\274_\263\300\273\311|\017\275\343\027\220=\021&\013\276\315\337\366\272\265\023>\274d\335\335\274\320\254\023\276\244\013\264;\223^\206<\003\326\270\274pc\374\274\224\032f<\257}\227\275^\3407<~\336\347\275\353\177\250\274\336\nx\275;\333\026=01\226<R\376T\275\315\261\003\276\374\305\002\276Gi\354\275!w\251\275\333\351h\275\"\327\r\274ly\311\275\000\205\253<]\370\214\275P\r\241\275\323X%\275\355/\363<\227\rW\275\357\r\210\275z\006\260\2726\217\370\272\326(\003\276\2743`\273\244\321b;\335\310F=\034\026\345\275\004\366~\274\220\375\303\274\373Fa\275\213\334\227\275\257s\036<\337b\316\273\366\327V\2754\305\211\275\302\231\341\275F5\335<\337\376\201\274\365\022\227\275\325\244!=Ya7=\343\360\243\275\231~@\275\205\234q\275\037\205\275\274`\201\006=Q\257\262\275G/\212\275D\023\222\272\317\237\340\274\336K\236\275\207\277\374;\3465\216\272 \357\216\275\216\374\322<2\310%\275\001\227\205\275ps\246\274\201\331\347;\'\234\010\275\355\335\r=\351;D\275{\344o:#\213\341<\375\237\336\275\023\333I\275\275T\006\275\210\340\221\275\t\0050=v\300\310\275\223\374\021\275hS\t\275\010\t\234\274\350nn\275\335\273\265<\370\222\034=a\371\032=\330\300\254<)tL=\312\n\206=\300_\260;rP\000\2756\274\271\275\202\276&\275A\334y\274\205*\260\273\376\331\323<\266g%=\027\245\002\276-\027\325=\234\332\315=\266\351v\275\347$\224=K1\323<\034\374|\274\361\032Q=\206\221\203\275\017>\212\274\026\250\251<;k\200\275\326\346S\275\010\362r;e#A\275r\352_=\356\3773\275\342\356\364<0\212\016\276$;\255\273\010d\306\275\305\031\247< \335Y\275\216)\010\275\3406\217\275\032;\361\275\247\200\262\275\203\342\224\272\345\210\016\274\377\032\252=\303\220[\274}7\347<\316\223\303<+{5=\000\364\341\274*\265=\273zR\010=s\235\307=\276\031\304\274\032\017\252<}\344\254=\240\237F\274\003\204\013=\360u\246=\'\312b\275\305\310\004\276R\346\341\2727\215\237<\306\377\226\274H\241\200\275+\002@=\266\024\214\275\024\222\345<|\266\213\275\353\353N\275\201\234c\275\006Z\316\274\367\212\257\274\361pE=+\034\221=\024\325\262<\351\311\345\2746\034@\274{\252\006\275X\234\301\275\037s\236\274\006\344\035\275\323\263\334<\033\221\303\275\030\201\031=\332\013S\275S*\204\274\377eL=\354\207\003\274\321\243\373<$\223\213\275\271\261~=\217\242c<\021+\024\275g\333c\275\375J\210\275\332\212}\274\345Z\203\275\370\006\321:f-\252\275-g\303<\364\'u<\022dm=Y\355\r\275O/h\275\220\016\306\275f\306\207\275\215 \261\275\322\243\304\275$\002%<|\020\332\274\226g\277\274\252~L=\255z\306\275^\004\237\275\256\346\214\275\232A!=\226@\244\275\247\215\210\275\342\020c\275\035\026\036\275z\2163=\246\221\033<\224\271\206=^\256\016<\340\027\233;\221\312\244\275\010W\314=\")\261\275\221^\246\2758A\022<G\002K=\346B\221=*\225\233:\207\034\232\274;-\356\275\363?\316=\362l\311\275\037\340\213;\347\266\250=xDp<\365\036\227<\252+Z=>\336\317\275O\256\373</M\273\274\371\240|\275\213\t\365<\256\272u<\003\035\000=\304\355\034\275\266\321\252\275\254\225\177\274D3\036=2\034Y\2747\254\346\274\232\242\013<\036(\233\274)L\312<\251\354\252\275!V\350\274J\270\303\274\'-\256<\327\272\251\275\2429/\273aJ\332\274\366\211\177\275\350%\302;;\371\021<8\370\375\273\20057\274)\311\200\275 *\n<\322\306d\275\214-y\275\217l\025<\032\366/\275Sb\000\275\352tT\275/\372>\275\034D\313=\332\257K\275\326\235W<\346J\270=A\332>\274\317\321\025\274\316`\214\272kN\327\274hO(;$\014\026=\03515=D\301\347\271\363z(\275W\356U=\325@\031\275\316aM=\251\273\250\273\334G]=k\n\005=\305\007\246<\021\220/\274\353\224w=\346:{=O\0249<vLS=\234\344#;+\276\001;K\341\214=\270t\254<F\342\017\2751eO\275I\300\034\275\374\342\207=n\346n:\377\373g=\334\331)\275-\253\010=\251\200\202\275c\014\013<x\277\254\275\364h\204\275g8\213<\351\365\224\274a\007\022\274$\367\250\274\365\257\r<^\013\273\274\224\257Y\275\216\030\255\275\307aD\275\306C\206\275;\305\351<\222\2202\275$\014G=\355$2\275\246}\256:Sq\257<\342y\210=%\233\324<\243\373\320<p]\300\274\263\241\320\274W\277\201\272\337f`\275\353\230h=\360\356\n\275d\\\236<\017\232\024\274\2623\214=\320C\005\275\274\000/\275Tg\031<\211\215S=\261\000R=W\034d\275\376\320U<\311\245{;\337d\251\275^\\\256\275\022\333]\275\2141\024\276\351\'\341\275\n\211\340\275Q\2039=9\313[\275\214\224\254\2753`:\275b\252\360\273\350c\246=\333\322\000\276:\357\350\274\332|\n\276\266H\031=\256U%\275\325\273\323\274\350\013\243<Ou\003\275P&T<\n[\230=\013e\256=\223\'\375\275\303\335\327<\037\334(\275\301\303\241\274\004\210\204<\2532C=\316\223N=\021\320\325\274\323\001\016=\005ea\275\267\007\213\274\227Df\275\014\327\005=\244n\037<*\371}\275U\355\301\274~o\006\275\n5S=\003\277\371\273\'8\336\275\304\371\254<M\271D\2758Q\303\274T\013\367<\344j\326<\036\032\230\275\020\343+\274\n\016\007\275\321e\006=K\261\230\275,\224\226\274\336\217f\275\216\374\210<\3105\256\2751\222\346\2740\240\225<\210\377\025=@C\315\275s3\257\275\251\226\t=\250J\277\275\344\231\010=-CG\274\236a\225\275)G\236=n\2640=5\024\210<\363\024\016=\376\256\026>\265\323\007\275\200\340\316<\304U-=(\000\234\275 \233\235=\221\235<<\372T\203\275\235`\217\274\036/\337\274-U\251\275{\241 =\260\023\306\275\322\327\372\275\200\235\210\275q.?\275\326\201\303=\352{\270<jM\225<y\t\327<\037\350\017\274\246#\215\275a|2\275\346\301\240\274\345\366\332\275\255\034\356\274\232Q\221=S\305D\275\273\317*=!)K\274\\2\203\275\023\024\372\274EiD\275\271VA=\257\357\353\273\206i\376\274\312\257\\=\236?\343\2758\032\343\274\016\0336\274\220\031~\275\213\244y\275\"\3654\275G\344\007<\206\033o\274\206\rf\275\027\251\222\275\016.\035=\216\370p\275N+O\275\257yQ=6\256m<\177\362\306\275\216O\177=\264\205\277<@\247\220=\354N\035=_\323\376<\233\342\224\275\252\3242=(]d<\334\350\243=\237\304\221\275\272\"\312\275\035?\252\272[\322\336<\016t\251\275\241e>\275\005\216\356\2759\314\t\275\253\2423\275\202|\343;l\334\250:\346\263\204\273Y\023\203\275\274\023M\275\223Mp\275A\225f<+\333\004=\307\311\373:\211TV9\255\316F=\222`\220\275\243\363N\275\'\3572\274c>\243\275z\200K\2754\250\347;\331\036\304\275\235\315\345\274\313\311X<nm_\275%+\340<#C\356;\2442.=\205\343\230\275\377?\360\274\353/\240\272\336\327\264<\376.\211<\202!\200=\007\036\267\275\230o\006\275\345\237\213<\240\204S\275\320d\267<U\216\022\274\217\344\030\275=\316\341;\374)!=6\344\026=\331\305]\273\327A\036=nY\302\274\204\205i<\035\275\373\274G\332\254\275\376\357\272;\376\253\316<\250q\322<l8N\275Q\231\301\275\214^b\275\305G\216\275>S\215=\236\242\035\274\312Y\245<\215|\325\274\302D\017\275IUT<!\334\225\275(\257\377\275\n\255\020\275\335vt\272f\277j<:*\261\275\213\304a=\273\320\247<3#\363\273Of6\275\377b\246\2754\373(\275>mi\275\2343\246\275fd\222\275\036e\207<\315\031\016=\342nj=\021\335\304\272\304\335\205\275\315\376\232\275\226\245\\\275\215\371#\275t\354\374\275\336\225m=\276QT\275\300\355\243\274\273M\212<N\006\234<\036\031\214\275OA\257< \214\213<\253\376z\275\200\377\305\275Y\262\024\275<GM\275z\300\r<ch\022=o\341\201\274\317E\310\275\366\351I=h\312-\275\003|3<\246\035\245\275U{\250\275\314l\362\274=\232@\275t\306\035<\352\211\203=EK\014\275\345\244\251\274\377\253\201\274\\.\211\275\366>\273\275\301\227\027\275\222\010\212=\261uP=\227\001F=\324^\247\275{I\303\275\226\343\035\276\214\354\201=LH`\275\314\002\000=\235W.>\356\3740=\361|\016\275\214d|\274\374\337\205=>\371\362<?\034T<j\242+\275\214\347\330=\3124);\274G\277\275V\217\243=J\213\356\275f\240q<Kx\334\275\234\3502\274\017\346\032\275\365_\334;\373R \274\301Wi\274\373\332\250=!\364\333=\006\277\313\274\214f\337\2752\363%\275\277\244v\275S>w\275i\252\276\274\0062\323\274j\255K\274\252\306\235=\257{\325\274\303\211\345<\006\347v=\003\337\036\275\352\255\313\274Z\326\271;\266V_\275\334\202\327;\375C\327<\273\367\244\275\220\261b\275\247\320\370\274\351+K=\232\240@\274\375\320\272\275}p\214=\254\022]\275\235\331\223=U\351\307\274\017\010\"\274\263&\230\275r(\001\276LQ\020\275=Z\204\274\3613\324\275\310L\275\274\321\032V=R\325\000<d\203 \276\020k\337\275\241\351\302=[\024\255=`01=\177\226u;\036LP\275\323\272\275<\0312\243;\264\214\375\274\316\225\246\275\270\343\360=\305\333\231\275\t\256\207<\232\2246\275KY\315\275\217\303\025\275m\254\256\274\325\255n<\327\025.\275\356\323s=2\222\314\275\325\333\211\274V.\377\274\276\225N\275\362\244\230<\242\306H\275(Q\263<\001\333\371\275a\020\177\275(\322h=6\341\'=!*\343\273\335\357[\275v\345B=\3419\204\275\204%\357<\345\242\271=\206s\245\275;\020\300\275Qe\242\274\014\355\264<-`\225\275c\361\223\275\2234\233\275\003\346\'\275\340D\024=p\254\212<}\325\217\272:\254\001\275$\262\007\276>\365\244\274\312q2<\304w\250<x~\251\275\3169\244<\204\310.\275H\005\007\276BQg<4\362\016=\242\036\022\274[\266I\275\364&\005=\335C|\274/n\323\273\222\234O=\262 ;\2750\223\326\275<uq=\210aM=+\254\031\274\224\301\272\275?\213;=\356\305\230<d\265\311\272\354\355\274\275\275E\003\275q\"\233\275\241\253\322\274\311MK\275\343E\220;\314\227\243=\333o\250\275_M\377\274G\003G\275n>\255;\212^r\274\351\030R\275CMW\275\353\0221\274\005\327\223\275\355\365\370\274\301[\016=xsx\275\236\362\204<\202\362d\275Y\243\300<\336\272\265\274\006\r}\274\247kM=xm\260\275O\255\240<\001\215J;\351\022I\275\204s\376<\023\177]\273\317\302\216\275\231\226\206\275\006\373\202\275\215\217\022=#\334b=t\334\253=\273\n\241\275\005\320\030\275\0338\350\274\021D\247\2756\"\267\274\224:\001=~\020\363\274\331\221$\275\202\ts=\375>K\275HTH<{T\347\274\034G{=J\315,;v\233>=\037\003I=\"D\202\274$\013\024=/\270\002=\235\305R=\016\237G\275-r\032\275\033\317\200=J3\016\275!\004\373<\033\262\214\275\374iK\275\275\337\303<G\302\227\272;\214\314<\336\351 \275r\323\003;\317\216\216=\014\006\353\274\006\246\027=\245\215!=_FE=Lh\031<\247\344\254\274\007f\370\274W\000B=t\260\017\275\233w\220\275\350!?\274\002\320a<4.)=4\244\026\274\261\236\357;\342:$\275O\270P\2744\235\022<m\264p=\320\356\211<\254\010\350<\364\313\207=&Qe\275\245}\221;Z\262L;\227\202\206=\332t\336\274\217\002\205\275@Q\221\275M`~\275\240{\261\274l8\255\274\245$\025=\332\006\001=\275r\213=\325\346E<\247\256\301\274Y\034\022\275W\246\242<\267\021_\275\327h\224=\352\377\370<\323\265\234\274\257n\032<\300\206\256\273\371q\005=z\023W<\312\225\232;\200#\t\276\342\375\026\275\317\212\212\275\nq\036\276\222a\364\275\332G\235=\354\213\025\274J\223%\275\260\311\306\274y3\201\275S\337X\275\256C\337\275\375\030\303\272\275g9\275\261\201\370\273\336\244\221\275\224\256\005\273\367\204\341\274>\361\264\275:\017S\275+^\014\275\326\304&=\025 \326\274/\217\002=y\375\353\275n\242\237\275:h\212\275\377\343\357\274\337\3753\275~\245\323\274v-\244\274Yt\247\275\353j|\275\325_\233\275P/k<\017l\334\274&\253\363\274\275cj\275\275\206p<\035\275\302\275\271/\206\275\300\033\036<\321vV\275\355\266\251\273>H\010\276RD$\275i\026\374<\2670X\275\366\224\260\273Z\3254\275\224\335\020\275\0067|=\nJ!\274\321\264\226=}2\372\274\374Z\373\274\317\005\330\275;x\216\273Fe\324\274\341%]\275z@\'\275\232\t?<\020tK=\345\247\365;_@\324\274\336 \260\275\340o\346=cA\301\273\354\007\235=A`\206<$\'\017<v\346b=\345\nC<\204\357\323\275#\"b=eW\220=\245\274\222\275\022\336s=\372|\267=\357\350\364<\212\3503;\305/ \275\306I\230=\253\211\365\274v\221\216<\253\352\010=\023\313\223\275\003\250\026=\216LN\275\331\361\246<\2026\217\275J\t\270<\233\2159=x=[<\341\260N\275L\346\200<\236\360g\275\244\343\217=\227\220\347\274\214\020\221\275\024\'\330<\310\025t=\274\253\005\275\326\231\245=\305J\013\275d\227R=c\323\355\274\350\316;\275\373=l\275\234\217\250\273\233`\323<\214n1\275c$P\275\373\202\217=\306\332\t\275\326B\"\273\313^\243=\264\214\303\274\213\007\177\275w\211~=\374z\327\274\321\201\344\275\227\266\305\275p\375\217\274\036\030\212=\272\252\336\275\373\325$=\001\260;\274\375T\001\275\204\371\325=\326@\327<\274\254\346\275O\233\\=\234\305\257=\2007\372\274r\005\243\275\026\366\307\274,-\004\276\234\327\n\275DT\344\275\246\253V\274-P\001\276I\276o\275I\301\271<\025\237\267\274q\3471\275\325\324\305\275\203^\213;\006\374o\275]yr\272j2+=\322UD\275\215\314U=\272:g\274\tN\211\274\035\371\246\275\033\000\365;}\275\t\275U\200G=^\351$\275\262\366S<\376\204\240\275\023m\250\275!y\271\275w|\254\274\037\226\014\274\255{\\\275\356#G=\354\034G=\232Q3\275-\345\305=\312\216\233\275\222{\004\275{O\265\275\233\247-=\020\014\365<\201\373\247\275\232\272\035\276\244\364\300<\230r\215<\327\r\031\275\337\252`\271\013\272\302\2754y\034\275\262\245\252\275\375\221\032<\316\232I<Z\031\251\275R\t\033\274\021h\264<\322\277\203\273Ze\205=\341FR=\230\203\311\274\205\241\213\275j\314\310\275\314\266\277\275\3140\375:jj\210;\264f\017<:p\300\275\372\272\247\275\0223\"\271\2176\372\273\252U\234=\256\301s<-\200\356\273$\361\034=\234\274\305<\214PF\275WV\247=Rn3\274\345\\9=\214e\330\274\021\330x\275\223\365<\272G@\234\275\020\314\003\275\353\371\247\275\212\330\313\275\265\035\005\275\347\303\007<-.\300;\346\232}<W\314\222;\310\246\273\275\334\"W\274\267\273\335;Be|\275\266\317\330\274\233V)\275\244\210\376<5\3738\275\343\260\204=\330\315{\275\033\032O\274\244c\341\274NxG\275\266\242\316=b\017#\274?q`\275\016\306\305<\317\214\260\2756\314\254\275\200\321a\274\247\310\234;b\001\030\273\330j\020<\016W\017=\213\270{=\303\221\242\275*\216D\274c\362\036\275\013\0021;#\367\352;,\231\204<\271k\033<X\371,\274\036\023t\275)\260\314\275\260\221\225\275\027\025^\275\r\317\036\275r\274\235\274+v\271<\223\026;\275\245\357\314;\245s\022=alQ\274\345Y\263=Aj\n\275B\215\234<\235PJ\275\337\364R\2749q!=U\002\245<\366\252&\275\020\235d\275G\340\224\275U\335!=\362.\254\275\356\267\257\275o\324\207\275v\223\'\271\355\325\375\274\221tb\273a\243\205\275%q\300<\374f =\211\275\006=\002\201\277<\320\225\013\275G\262\"=6_\234\274\177+!=\220\032\222\275ch\261\274\302$\262</\307I\2755\236\270\274Ygf\275\225t\261\274\375C\n\274\263B\221\273\3445Z<>\310P=\216g\234\273\260\032{\2755\360\322\2753\277\014=\214\3008\275#\247C\275{Mp=?\304R=\000\274\365\275\362/.\275Itl\275L0\355<f9\363\274\036\354\304=Z\n\312=\343\373\315\275[\021\272=uR]\275\024\347\362<\3570\263=\036:m\274\275=^<\357\035\032\275\373\251\r\276\222i\264<\210\230^=\037\035\244<\337F\007>\217\177v<\033\t\241\274\352\352\211=g\366~\275=\337\376;\236\"\026=6\nc\274\002\017\246=T\352\265<\n\267$=?\315B\275U\214\323\275f|\223\275\331C\376\275%\"z=\021\371\371\275\023\247\024\274U\344C=\257\177\335\274\027\312\264\274\232\244B\275\255\316\211\274s\027\035;P\312\250\275\023S\315=\302Nq\2750\271\245\275q\322\261=u\257\272\274\224w\306<\375\253\255\275\020l!<\253\020\347\273\266y[;f\327\300\274\034\205\206=\333[\326\275\004\210\026=\225q\010\275\353\326\351<\303\3355\275\"\036\222=#\350\021=\323&\"=0\257\016\275\212\007r\275![*=\374\322\257:\032u\r=\177qW\274\350\330#=\010\031b\275-P\204\275\203\275\247<\035C\212<\200\206\216\275zi\030<\037\257\302\274\211\340\242=\310\246<=\027\037\227=\006\2238\275\001rW;\323J}=\341#\356<\346\"\346\274c\006\327\274G\023\321<\215\226\324\274\277?\177=2y7\274\236\357e=\273\020*=\245=\212=\314>\223\275\033\005\333\274 \271z;\023g\231\275\365K+\275|{~<\343\360!\275-RE=oVL\275_\3657=\241\354;=\025\205\";\210\314\201=\tI9=\332\373\017=\3567\'<\267y(=\215-x=\0355\374<\2339h\275W\335\216\275ve\000\275)\355\340\273\254\025a<\017r\202=\234\300\236\273\357\3020=:\000;\275\256\247h=\021\207\r=\031\366\365<y\262S=x x;\340z{\275\262E\021\275\336:\024\275\001\2512\275\350\273\215\275\305\3159\275Y\257\261;0\365,=\312\317\372<\244=\\\275l;\026<\332i\246\274qfV\275\261G{\274Id\247\274\253\320\211\275\265*\006\2750h&\275s\265S\275V=L\275\317\226\210=\336\355;=\371e\033\274/\307\341\274\305\316_\27566\272;\226t\313\273\324Z\214=w\007\313\274\244\223m\275b\327\032=\316\371p:\273r}\275\206L\226\275(ct=\262T\347<701\275\360\241]=\020V\023\275yP\002<\345\254e\273re\217=?\205\236\275\342\341{=\304Xj==(L\275\335\375\036\275\241\2361\274\236\027\025\273\212Cf\275\374<\277<\007\334\023\274|\312\344<\256}\223</\206N=\266R^=\361\314\211\274\311\000d\275\236\250\371:;\'#<\322*q\275\013\235u;\375\366J\275\255\251\347\273\177\226N\275L_\234<q\354\357<\351\370\260<\202\310S<\002\276\235=c\235g=\202\026\377\273\365\350\036\275\014J4=G\264,=5k\253\275\314\304\231\275\260\257u\275\274\013(=\225!\207\273\\T\357;Rp\266\275\2721\217=\264\344\317\274\252\367T\274\273|\340<^\2062;\006\205\372\274\373?3=\375\253\342\2734\363p=\265\022\200<\225Z\014\275\212\203\302<\007\203^<\214&Z\275]h\252\275\376@/\275(:\267\275\255+\206<\207}_<\266\023o\275\342\220\355<\312X\271\275\271\177<\275d\371\220=\326-Y<\021\001i<A\325D=U\035+\275P\022\232=\2543\035=\246!0\275 \271N=\036\266\226\275\326\021\344<a \373\274.\331\232=\"K\010\275q\360\276;\234\323\336\274\027\2340\275]v\244\275bsA\274\270A\303\274\036u\221=\253\3066=M\207\225=\024\367H<,\326\202<=N\213\275\2514\n\274\354\260\236\2759\270\221=\201\264\311\274:0\t<,\010\215\275\271\003K=\005n\\\275\375^+<\252\212\266\275\356\360\014=i1U\275#B\207\275\026\341\341\274\250\337\037\275$\313\220\273\315\356\024=\255\352\222=C\226\254\275$y.\275\320\300\306<jJ/\275\320\336\246\274\373K\253;\036\265k=\336Z\001=\355\0262\272w\'M\2759[\262\274T\267`\274B\3345\275/> \275\240\261\025=\350d-\274\227\235\302\275\n!\036\274\325\262\"=\016\276c;\227\377\204\275\347.\216\275\252E\222=S\365\250<<#R=\237^\230\275\224U\266\274\2469\243\274\234l\263=\246\232\213\275\033P\234=\326\215\033\274\326\031\276<-\261^\275\260\352\235\275\326\220\010=\276~_=\320\215a\275\277\014\005\276\301B\226\275\031\245\200=\031\221\303\274\362so=\024\027\344\274x\303c\274\216@G\275\340\200&;TPi=\200\367V=H\004\377\274\236\223b\275lZ~\274 \373{;x\214*=\224\213\301<:\027\212\274\214\260\321\274\340\353\226\273\"\240W\275\200\236i\273\336\r\363\274h\263\027<f\023\205\275\340\365Y\274\010\225\021\274\033_\260;\220}T=\251K\013\275\024\215\260<\360\026r=\240\007u=\0332C\275\250\017\221=H\333S=^w2\275\320\337?\274@\212G\273:\206\016\275\246\021\205\275\034\353\365\273\316\3505=_4@=Z\274Y\275\006?L=7\201\207\275\010\350u\274\356\236\206=B\304\251\274M\231\203;\260\342 \275\034\236\217\275\204\243_=~>,=\\\333\207\275\024v\013=,\002}=\322\003\255\274\370\367X=H*\237\274\013\032\214\275\034c8=j\0173=D\264V\275\370w\327\274N\303\307\274;\034\\\275G\007\276\274\007\342\214\275\332s>\275\200E\252\275$\327\202\275x\254\325\273*8b\275\267\255k\274\305\277\005:\230Y\352\2745\364\210;\004\212A\275\263\341\362;u\265\227\275H>\351\272\221{\264\275\247\004I=\311T\036=\373\336\200\273\303\016\006\276\376\317~\275\003\323\205<\222\237\016\275\365N\024\275\340\344\366\275%hv=@^\225\275\265\t\355<\021\360\006=\217\313\310\275F\333q=\036\032q\275x\004\261<\215\267C\275\202\227\207\275{j\207\275\310\373\"\275\207\2631<\263k\355<\346\335\033\275T\231\330\275y\223}\274J\211\200;\300\331\236\274Bz\314\274\375R\204<\265\342\002\274Y\3667\275zV\201\275\003\346\315\275\030\227/<*k\374<lM\343\274\372Cz\275q\212/=\314=\304<g\230\224\275\254\315\276\275\241PM\2749!\316\274\234\250\017\275Ol\214\275s\266\222\274\315C\005\275\373\262\211\275\371\246\025\275\225\303f\275\245EF<43\210\275\227\257\220\274\341O\002\275\265\265\343;T\014.\274\364\341\212\275>t\203;n\300\372\274\n]\253\275E{\205\274:pb\275^oU\275G@\202;}b\267\274\302\021\300\273]\024\337<\377 \203=\344J5<\2036\345\275\254\276\':?\273*=i\372\001\2752`\251<lY\250:\335\300O<\312\274,=\260\316\007\275\322\260{\274\014C\237\2749\303t\275Z\202\210\275]\006W\274v\305\332<\005L\'<\356\030\234<\322\343z\274ob*\275\317\022J\275\223\211\334\273\327\304}<\335\004:=+.\271\2755\346>\2727\325\304\274<\342\017=\315\336\027;\363Z7=\246%\226\274a\376\\<\335\302\377\274\252\320\356\275w\373\356;\036\257y\273\257{<=\0106\204\275\275\000,;\221\313_\275+\360\360\274\177\354r\274P\215a\275\374\343\t;T\233\020\275\352\204`\275\303O\200\275\376\356(\275\277\337 <\216\302\265\2740\252u\275\177\255\260\275\302.G=\034\010\265<5|\237\275\177\270@\273lC\367=\005\347`=gd\305\274\032\226\037<\214\217\026\276\321\330\022\276\017\321\022\275P9\233;\257\365\251\275\322\305\243\273\342\002\263\275\241\234S<\n\255\263=\272Z\311\275\013\035\373<H\332\264\275V\251\351<\234L5<\236\027|\275\213\320\212<\240\261\236\275X#[=\355\004\004\276\243\333\250\275\274\245D=\013\2308\275\255\307\352<\242\362\367<\217\223V\275\005~\275\274\207\241\266\275\351u\274=\214\274\002<\353u79\345{L\275\376\206\264<\214y\032\275\334\323z<<\270\033<;`\230<\031\277\305<\365U\200:\003<\213\274\226\336\035;\247T\350\275\324\214\004=`\257\275=\330I\253\275\332p\031\275^:\203\275\313\211\031=\204R\263\275\024\377\\\274o\3411<\3750\367\274\030\321/=\336(\'\275=\365{=h~\377<*/^\275d=\216\275\177\240\210=\244\036\215\275\363\373\034\275\0240`<\200\021\354<\277\243\343\274\035<\033\275\374o\205\275\235w\320\273\236\r\207=\013ji=m\205\363<\031\"W=G\217!=1ZD\275\200\254\223=\2260\304<\256\271\220=\"\216\234=;6K\274\332\260t\275V\204c<0\3150=\246\203V=\203\263\2579\313\346\213=\212\036\023<\320\332\312\274\300p\231\274\321\220.\275\202\254\201;wSo;\336\237 =\210\000g\274\323\022\200\275/\227,=\\6\344<t\021\307<\033\260\000=\366ms\2759\375\345<\344s`=\335\364{\274\372\375\274:\n\320D=\241_\013=_dj=\033\320l\274\\R\021=+\370\345<\251\001!=\306w7=\307\343\202\275\260\007\225=\322;\234\275\3625\344\275\255^\026<\266\370E<\t\003\205\275h\351\007<-\374\212\275\332\346&\275\016\353<\275o\306\304=q\373\027>p\023\004\275\031\377H=\177\232\250=<,:<\272`\355\273\002\217\202=\343\373\244\275\275\202\n\275\211\335|\275B@\225=_\034\311\275\312E\203\275\277l\307\273\017\300\231=\024`==\336\034\317\275\254\376\263<\014\247\204\275#\207\025\275\233\214\025\275\004G\022\275\244P\366:V\250\277=\214\377\306\273\244l\310:\031|\277\275\331#\260\274\324\271\234\274Y\036\241\275\266\371Q\2758\277\217=\233\365\020=\347\001-=\366\313\020=\367)V\275\330\027!\276\317\037\245\275L?\243\274\241\036q\275x\331\373=\323\344\344\274C1\274:\257\363V={\225\215=g\010.=\017\227\222\275s+\251\274\320\313\255\273\360\033n=\354\366\231=\205\337V=P\355u\274wv\021=\022\247\023\276\347v\334\275M\365\324\275\253(\257\275E\304S<\306L\010=\220\245\224\274\325X\014\275\251\ny\275\237\3772:\020\301I>\350\275\237\275\373\312\216=\357\202\271\273\266\316\025\275d;\213\275U\342\303=\200\235A<\001\221\310\275\255\231\333\271\344\037v<Bq\031\276GE8=\225\\\222\273\021\254\023=\033\002\314:9\323\335\275\025\033H\274Yyc\275\237M\243:p\302\333\275\206(\202=\314\350;=\014o\"<I\\\035<\226\247\021\274\222\326\371\275\\\3136=\272T\320\273\353%\202<\215\323e\275\232Br\275\342\201Q\274\014\354\033\274\212\r\031>\023vH=,\207,\274\233\240r\275\257;e=\315=\007\273o\247\333=\210\003\034\275)l\371=\214\010\257\274.\3556>\r?F\275|\223\022<\215\352\260\275\317\300\017>\034\222\241=.\262\212\275\013\265>=ND\362\274\226\014\346\273\361&\266\274rs\221\274\033\"X=\361sD=w\2059\275kD\031=\231)\360\275\366\207\345\274tO\354\273f\375\361\275\034\327\352\274\247\321\355\275f\354f<\314?\231\274\272\262\251\274\211\014\022=/7O\275\364\326\204=\030\240\002<\300\242\022\275pG\325<\260 `=\021\003\251\274xc\220\274\023\013L\275\010o\245\275q]\333<|^`=\207C)=-\302\301\275p\2316\275\310\347\224=y\300\273\275\357\005\214\2755\222\305\275S0(\273\177\205\034=bJ\006\276\276\nm\2753\207\240<.c\275<\360*\347\275u\014\370\274\211\014\347\274\tj\003<(\234\332\274s\035\233=\204w\235\275b\036;;\220x-=I\307\243\275,\231\205\275g1\250;\037*\n\275\363j/\275%u\323\274\"6\212\275\246\204g\274W\205\206\275\302\246\027\275\200\312\207=\3104a\275\200\216\026\275\252[\023<I\274h=\314\307\270\274n\3106\275\030\222\226<H\253;=\255\224P\274\224\235\220=u\327c=;\231\261\273\345\021\323\275\304\352\251<)s\215;.\273\251\275*\373s=\031\nO\275o\331\276\274HL\252\274\357\317\024\276\257\021\017\275\365\306*=<G\270<\310\324j\275\264\010\226\275*\314\275\274\252\316x=\347\274O=\240\031\016\274\346-@\275B\203\347\274\212\345:\275\034\375\350\274\247\004$\275-\310D\275\310\177\227\274\353?\222\274\001\240V\272\217>\004\274FZ\210\275|\023a\275\274`e<\034\263\211=\013\313\205\275\303\273\357\273\211\207\363\275}\261\004<\316\277\226\275\"\227\002\275\373\231\215<\252\nw\275\203\236 \275RB\250\274]\255\245\275\306\206\033<\024\002M\275`\306\327\275\311\030\236<]\254\222\275OG\202=\210\274\364<R\367\222\274j\230\035\274\321\027\300\274\250\212\n\274\340\322s=b\364\271\273t\310\200\274\357\344\202<\274w&\275Rt\304<h\373\215\274\344\373\241\274v\315\202\274\016\375\242=\220J\334\275\332:\246<&if<|{\234\274\261]\205=C\317\016<\321S\331\274\276\310\207\275\010^\375=6\233\231\275\230\tY<\356\3052\275e>H=\374\277)=\256L\220;)\353&\275\334\274\344\275\256#&=I[\036\275\240\363\256=\245\372\373<\231\251M\275\306V|=\232\373\202\274\026\325\241\275\020\275\265\275\251$\344<#\006\217\274\235\364K\275\367j\201=6^e\275\362\300\010=vCx\275J\303d\275kr5=\026\257\007\275\241XP\274\352\270\211=\337\216\252\275\357\244\022=\0315\205\274\316\030\253\275\310\0130=>z\211\275\245\000\271<\250\n\026<\277#(\275\254\351\214<\014\346Y8\347\tl\275\301| <\207*G=\222\351\242\275\350p\366\275\256\257\202=\034Rt<\323\006y=\206P\201=\356\222\367\275\223/\364<N\337a\275\266\334\256=\345\240\240\273 \213\261<\003 S\275\005t\217=7@\t=\017 N=\334&\200=;k\373\275,\026\353<\237\363\315\275Y\265g<&\013\037=\251i\013=ESW\275A\233(=9\200]=\245\341L=\262-\353<\203v\270\275v\211W=\2456\243\274\033\027\213\274=H\223<\227\nP\275\204z\354<\223\351=\275\200\245h=S\346j=\004Nh=\375&\315\274J\206I<\347Y\337<X%n\275f}\257\274(?\013\275\260w8\275\270\307\026\275\n\365\317\275I\021\023\274~\321 =\241\310\267;r\351\232\275\345`b\2746\003\267<m\255\235\275+\226}\275\273r\263\273\023&\032\275\267\003N\275\001\t\276<\357\330s\275&\210\220=\\\223L\275R\341\355<y\027\276\275\261y\302<\022LK\275<\266\027=\304L\236=\250\034i\275\2600-=\262:\022\275fS\210=n\231t<t$f\275[\r\200=\211R\333\275\210\211\200=\322\221/;\234Q\330\275\220E8<\223e\300\275\034K\301\275\r@\252\275)U\361\274\005\023\037=\374\000\226\274\325v\305<\335y\013\275\177.\\=\243\347\343<3\200\251\275\214\007\025\275\322J\021=\361\266\234\275\032\037\021=#[\371\274u\313(\275v\202\212\275}\247\250\275\340X,=KS!=ni\254;+_\346;\354\014\027=k\023\204\275\324_X\2756\246\354<s\206\033\275Q\272*=nu\330\274\016\327L\275\247\375A\275\301\253P\2734\311\267\274s\"\003\275c\237@\275QS\031=\220\337\031=\353yS\275j\347d\275d|\352\274\210\013\371\274\037\260}\2753\357\263<\255\232\276\274`E&\275\035\272h\273\236`?\274\233\214\031=O?\343<\312y\364\274\327U\t\273\232[\275<\261.Q=\033\273\006\275\312\2168=2\213\337\275lL\332\273\327t\003\274\232\260\230\275z\364\001>b*\345\275\006\377e\275QT1\275\361\016U\275\205\020\327\274v#\355\274\264N\311<\246g+=\024w\244\272\335\'\263\275H7\203\275\225\364\246<\270\020\206\275\003\3608=\026;\026\274af\024=Z\216k\273\007~\230\275c\300\306\274\030\374\n=\365\0168\275v0^=g\311\'=\300[\031\275\326\376T\274\232\325Q\274*\342n\275\355\275\262<A[\203\272\007\"\017\275\310\231\003\275\361@H\275d\347\240<\336\370\267< 5\020\275\344\366\217=\235x\231\274\261\3558=^\032\312\275\232\204\277\275\324\264\230<\306$D=(+@\275\004\2659\275l\030\364\274\313W\231\275\266\230\215=\2410\224\275\320\267\025\274]<e=\232dR\274\324_\024\275\2222\334\273%\251\264\274Q~\003\275\336\226\246<l\230\267\275\206Z\025=\244\273g\275\343Ht\275q\342\207\275\027\027\211<\325\352\333\275\250;\243=\213\232\374:\003\316\324<\363\355\270<y\'\224\275\020Gs=\331\250(=\034_\300\275\344\r\357\275P:r\275\252\215t=\273\312}\275\255\025\317\275\265\352\320\274\305D<<\033)\017\274C\336\342\273K\306r\275\232\344\022\275\205\364\200<8-\022=D\324\030\275#\241\355;\266\014\247\271\333cN\274t\262Q\2750\351Y=\361\203\224\275\257\204\256\274\200\224\347<\234\020\037=8?\225<\273B\223\275M\260\336\275\221i\006\275\324d+<J\351\023<\224d\022\274\373\255\264\274\250\353\232\274f\223O=\326\206\204\275\264\367`<\231j\\\272\217\314[<@T\023\275&\016\206\275b\375s\272\3432\224=Mj\206\274R\306\246\275\031\211n=\030\277\005\274/,\035\275\271\367A\275U+\005\275\261K\220=)\017\224\274\310\\f<>\314V\275\244O\002\274\016W\332\275\330pj\275\326Q\025=\324x\010>\334\257\255\275\352YQ\275\003\312\321<0|\034\275\341\331A=d\'\265\273q (\275\224\212;=}\316\247\2752u\226\275\255+\226\273d8\305<\317~r\274>\362\346\273\223}\362<\264\375\275\275\247\216\323\274\016\206\261\2750\225\223\275\244\350\242\275@\016\r\275\271\375\246\274\264\336\215\275v\273\341\275\335\032\253\275\302I\2549\314\335\243\275\224gn\275v\252\020\275\361iZ<\340\211\327\275rH\273\275K\343N\275\030ki\275\210,.\273\320-\023\2767\377\202\274\275Jm\274\370k\r\276s\327\342=\013\340\323;\214\270\251\274}\003\306<N\357\035=>\365\017<\351\347.=;\"\036\276\367\325\316=\000>$\274\014A\000\275\315E\260=T\251N=9]*\275v\226\202\275\314\262\257<\245G\246\274\310\357\356;\007dm=hK4\274R\206k\275\216m\231\275\322\350#\275h!5\275\261\247\027=\014J\215<\036\344\321<\233kv\274nG\212\273\322\0105=1(\322\274\265c\216<^\346\221\275\343\014Y=\t=G\275\027\231\031= 3&\275\252%O\275\007y\242\275Tr\333\274\2609\276\274\356\304\226\275F\321\315\274~\320\032\275\0174\256<\257\370\027\274\t\340\232\2753\272V=/Y\r\275\030\264]=\215\017\216\275\376)F\275\322\253\201<YX)<\365y\"\275\315\365F\274\024\376!=\223\r+=\371z\213=\004\214\024\275\377\252R\274\016\000\225\2759\350\207\275\"\204\026\275\264\313k\274\364\363\025\275\322g\267<\206qj\274\206%\265\274\231\352\356\273=\356\227\274\347\005\207<6\254\221=Q\027P\275\303b\300\274W\032h;\356v\370\274\363\304\377\273\3778K\275\331\316\352\273>H\026\275\306Tv=a\327\354<\317\025\241\275lQp\275^\200\224=;\373\247\274\247\n\267\275\211\254/>\021\252\023=e\304\215\274\300\"H\274\377\273\203\275`\341\006<\007\003\025=iw\202<.\330\341\275d\244A\275\310C\000=\342\275r\273H\346\202\275=z\220\274\350\2604\274\353\320V\275q\210\365;\215\325\215<\020\362\227\275 9\354<@<:<\247\t\323<\271\2047\275B\265\365\274m\001\347\274\003Bc;\240\303-=\352\237u;\357=\231\275\340\227n=}\263\t\274\351\331/=@\010\205\274\233\'\311\275!\000,\273\032mI\271%\356\334<\000\367\223;{\333\006=R\310\214\274zyA=\024\025\220\275`~\220=~\336b\275o8\340\274\272e\206\275?o\274\273_\322\205=M\0362\274\0001(\275\204\024\003\274\227\021\310\274o{\264\275H?\356\274k\320\241=z\335Q\275\364\006\323\274\224.\002\274\271\372\217\274\000\351\212\275d\020\207=\356AL\275F\374\031=\277j\025\275\325\230\'\275~\307r\275\315mf\275\207G\023\275C5\302\275c\036\221\275I\351\362\274\321\335e=9\233\323;,9L\275\360\342\026;\216\323\032=~\373N=A\331{\275\273\375\257\273?\333\332<\017\234g=0\t\237\275Ld\001\275\010\256\222\271N\352H=\037\277\341<h8\037\275\225G\232\274\255\256\235\2757\032\375;L\335\371<7\364j\275\330\234\005=Smi<;\256[<\341\207\016\275Fb\202<M\n(=NQ\260\275\227%\233\274\032\213|\275\205u\352\274\003\340-\274Q\242\204=/\364\305<\316\322\026=\r!/=3\004\001\275\350\362v\274\275v\322\274=(\303;?\250\026\275\263*\213=\317\023\'\275\220\266\317\274Y\207%=\212c\005=\222\336\004=9\374\212=G\3314\275ik\205=\247\247\232\275K\300\216\273}\330V\275\252\312\250=I\005j\275\337-\005=\254\005\360;/\300\240;d\333\351\274%\231\374<\207wD=\356\270\274\274\261\223\230<i\312\005\275\002\360\242<!\201\256\274B\372R=\025\3279\274\334\'\315\274\276oy\275r\007\325<\227\021\017=\3626\\\2757x\367\274\312\246\n\275\277=#=J\3418=\205\212\n\275\335|+\275\r\351\264\274\273\226\220<&5O\273\246s\216\275\225\032u\275bF\374<\211\203\253\275v\316<\275\227,\t\274\322E\201\275\312\327\252<\304\367\004\274\264\276\n=\273z\024\275\332\303e=\006^\346\274\257\302\031<f\356\242\273\t\334\211\275\370h5\274s\320\020\275lPW=cb\020=\277]\332\274\331a7=C\024\021\275d\341==\005\360\236\274\233D\211\275m\347\007=&\355\007=\037\352Q\2724R\220\273\336.#\276\263\025\022\276h\305\253\275\276\023+=a+>;k\323\325\274\273?\241\275k\263\375\275\300[y<U\001}\275\247\307\252\275\224\210\324\272\016\037=\275\234.\362\273\344\200\214\275G\001G\275\2515\344:\200\341\371<\204\017\217\275\332B6\275\231\010\251\275\203e\263\275,\377\005\276\'#[=T\255#>\371\030i\275\370;\252\273\343\310\270\275x\020\312\274\231\311\203=\215\001\200<\233\014\002;\223S\001=\232\275\217\275~\360\021\276\254;-\275\263\0206\275\246X\226\275\201g\354\275\363\375\201\272\025b\307\275\206\233u=s\274\305<)\364$=\216\255\237\274F\346*\275\356\272k\273u0\266<\352\000\005\276\253\004W\274Ld\253\275\216\307V\275\0026\003\275\005\2522>,GR\274\273\006\036=\310\365\032\275\242\001Z\275hm\342\274,\253\217\275\347r<\275\260,\034<V\013\320\275\372\370\317\275G\233\234\275\315\177\317=EM\260\275\373m\214\275\247\227\014\275\307\033\334\275\020pU\275\265\033\032\276BH\242:\224\207\232=\365t\210\274&\256\223<\334n\221=\267wW\275^\305\366\274\255\257Y\275Td\215=#\0220\275\034\322\036;\214\020\211\274\261\332\320\274\341y`\275\000\007\206;\365\n\240\275JwI\2750\336\201\275qy\211=PW\264\275\225\000\267\275\360\344t=I\213\243\275\211~F\275\"\267\201=\315\026\232\275\3370x<\215\032\306\275\223\311\203\275\254PD\275lN\024\275LI\226\275\200W\017\275\020\376\244\275\255\335\374\275f=\344<\264\344\030<\"\206\347\274^\235\322\274d\246\205\275\350\307Q\273k\372\234=~\313I=\222;\022\273\260\327\310=\366U\212<\342\204\n<\361.\013\275\0136\323\273\353\3167=<\241I=\202x\206\274f\231\254\275\262\301\227\275\'\026\230\275B\024\237\275\226\373l=Z\313\266\273\000\\\317\272\340O\001;\251\3133\275[\214\305;{\215\255\274`\nM\274Z\230\t\275\266\255S\274\344q\017<*D\240\275\273\355m=S\365\022=\233\305\223=xD;\275[\203d\274\3106\214\274\302\"\332<\002\nm\275}XI\274\201a\020\273&\t\224\275\351\253\240=\354mQ\272@\006\217=\335I\253\273\215\242\364\274\'n\022\274\217\272\240\275\365\313\203;\304\017 \275u\226\t\275\014\255\273<\254\030\322\275E\243\217=<\257|\275\242\355\016=\310\266B6\007ek=\335\340\223\275?1\014<*\274\374<\225b\354\275\014y\235;Zn\005=x\345v\275\217F\216\274\001\214F\275/\213\246\274\331\226\306\275\013\215\353:\374jm\275\364\204\235<ao\233\275\261\267\227\275|\273\340\274\204\321\315\274B\202V\275\016\022\222<o\352\200\275\016\341_\275\327\364\216:\322H\234=\354\310\220\274\346\023\214\273\324\311Q={=0\275(tb\275L[\246\274[\307i\275\307\323_=\034\220X\275\301\355\350<\004y\225<\355\265{\274\365.3\275\rN\t\275\266\262\244<@\255\223\274\247\330\031=\2470 \275U\266f<\226\367\365<\'\003\201=\214\205\317<@\267\205=5\324\270<\216i\n<\213\023\330:C\201\227\275\334\227\214=\332\341\265<\263\227\210<\324\235\237\275\032\367[=\362\365\354<\310\200\215\275\213\0268\275\334\021\217\272\232H\311\274\037k\213<\270f\234=\3411\232\275}/0=\254CM=\255\256t\275\204C@<\375\322m\274\0164>=\241\025\036={H}\275[c\033=qLT\2740U\256\275\242\357\033=\036\342V\275mz_\275hI\232\275;)i\275*R\272<4\263\222\275=5\212\275\225\026\223\275?\350<\275\262\004\202\2759\316\260\274\374\376\270;\274\361,=\343j\214;Z\241\202\275\250\236h=Q\2529\275b\272\370\2732)\230<\016\322\351:\020\266\031=\271i\241\275\323\266\275\275\322\272<\274\024w2=\320\311\272\274.R\246=F\222\235;\251\320\023<\275!8\275h\322|;\n\274\323=\321x\005\273\021\251\302\275\355E\314\272\355\220\202\274(n\'\275\331\260\345\274\270\234C\274n\317\210\274\020\3075=+ $\275\232\0056=\203\377#\274Bf\356\275\nuQ8|\266\315\275!\240!<\315\246\245\275\226Q*<\356\225\205=\312\303\272<\376\264v\275\350`\007=\370\225\'\275\365\036\263\275:\373\303<\"\274u=\377\350\235\275\314\233\273;!\r\242=\256\336\326\273 \033\275\275\270,\371\275y}\317\275\262\004\363\272\352\320\233\275AHF\275^\347*<((\'=\277+\234\275\340\325\020\275\222\002\341\273\350\376\370\274q\320\243=tjy\275\233\013}\275\355\374f;\266\336?\275z\ru\275\361\006\022=\355\013b\275\312\330\271\274HX\000<%\031q\275\205bI\274\010\356$\275P\360\t=5g\213\275\027+ \275r]\021=\256\330\247=\335v\023<j\020\277\275\370\030\005=\340\371\n\275\256\n\010<\177\2407\275\377e\243\2739p\032<pie\273\355/\303<C/\033\275z&]<\277\372\202<2\247\244\2743\362\217=\226\177\204\275\343\262 \275\265\037\246\275\023\227m\275\021uK\275\253\2073\275\233v%\275\363\305\261\275B-\277\274\"\247,\275qo\245<\255_\027\274d\005Y\273\357u\304<!\361\340\274%~\276\275\340\265\'=\216Ei<?i\304\274\032J\200\275r!\360\274\241\203I\275\325\225\304<\226(I\275\035\251\235\275D\014T<1m\257<\034\265\252;f\201\224\274\r$#=\tL\302<`\345\225\274\235h\237\275;x3\275\226;\362\275\326q\032=\313F =\341\223\251<\222\036\207\275\352\233\356\2747\347<\275#f\316<\335\333U\274\272V\234\275\'\273\004\275\006\027\323=/z\316\275\375u\030\275\2373\004<.\345\232\275\036\227\r\275\312x\256\275\202\276\262\274z\036\230\275-J\211\274\201\005I\275tpB\275j\232\262=F\222\255\275\227\262\201\274\023}W<+\301\332\274q\002\032\274Uj\005\275\261J\200\275\214f\211\275W\356\345\274\261u\300<\033\261\033\276\352\346\257<\377\347\204\275\010t\026\275\343\014V\272riy=Gn\246=t\371\330\274P\252/\275\271\003\263\273P\200\005\275\250\340(\275P\244,=qR\200<\216}\010\276\354\306\375\274\242\030\252\274\3627\275\274\024\236\336\273\345\235\t=\316\353B\275\036&\241\275\0039}9uD\254=\230&\027\275\343\226V=z\206n\274\254\023\022\275\346\206\264\275\305\020\230=\361z\352\275\313x\305\275\005|4=\004\201b\275MC\035\273\377\027\000=p\211\216<\326\213\002\275\214\252\321\274\224\245U=Q\256g\275&| \275\no\376\274\'#a<M\014\231\274\n\037\021\2763\333\304\275\004\214\013=8R|=A\207}=zI\202\275::]\275\030\243^=\340\207\237<\215\316\221\275d\273\231\2757}\231\275\200\3264;\362\353\363\274<\033\306<\365W\247\275\315\376\203\274IL\020\275]P\233;\033M\201\275\306\rZ\275\017\251?\275\256\3115\275\230\301\207\273\024\336\252<\200\245\226<\244x\253\274\003\000\320\273c\200\253<\246\310\240\274\226\264\315<\206\221\232\275\027\254\004=\274?\033\275\311\314\206\275b\005\216\275gR\251\2757\224\217\275\243\233]\275a\306V\275s\020\242<`\255\222\275\027:9\274\215\347\302\275\317\365\305\275\301\274\2529\244\247D<\205\355\211<\2250$<\034\337\004=^\362\010\275\362\200\031=\307\316p<\\\324{\274\254*9=S\211.<\376z\257\275+\007\312\275\246\274\353\275\355B\366\275\315\241\234=\201\333I\275\3768\210\275\273\340\314<wi =-p\276\275Is\220<&q\247=C\211\207\272\333K\004\276\006\010\334\275^\rG=~]\232\274\303\3469\275\331\206v\275\327Ow=<y}=\361a\004\275\004&o\275@3\225\275\303\251\343\275\250\202\231\275\\)\306\275Q2\036\275\370\235\020\275-\305\003=\270\223\211;jp\203\275\244\217\304\275\330\3029=\032\373\346\274\255\365K\275\317\0220\275#\2438=\336\240\251\275\313\357\350<M\\\224=\004\336/\275i\374=\275$\270\305\2752\241\245\275\361\343\020=(\224\331;\253/\025\276X\275\244=\000\"\327\275\227jp=\014t\r\275LL\030=\274\0130=Y\232,=-\332\277\273\252\006\345\275\351]\023\274\350p\313\274!\326\327\274\254\302\211\2757\n\360<\245\3627\275\367x\273\2753\234\316=\025\253\023>\271\224~\275/\326\200\272=\236\035<\017\201i\2747\211\374\275\250:\210\272PN\270\274\017y\026\275\025\326\323\275&C$<QP+\276\206V\306<\334\346|\275\330\034f\2759M\322<\t;\n\276*\335$\275%DE\275]i\217\275\200\237\207\275\277\322\230\275\374A?\274\307\231\241=\271\233\010\274\2633/\275\331\005$\276).\'=\350I\376\274\005\000\277\275\210\226\325\275v\342\';\017g\205\2758\362b\275\277\230\203<D\235\240<\220\224\231\274\226\257\247\274wU+\274`\t\353\275:\321\250=\333\207\004\2767\345\232=h\304.=\0067\350=^W\322<)\254\000\275\2361\020\276\037\213\027\275j\275\356\274\357X\214\275|*\303\274\354\277\317<\254\362\255\275Jh#\276%5W=v\361\276<\302\374\267\275\377c\251<\340\300\353\273\365\364\326\275\037\002\375\273C\220\315<\214\347K\275av\340=U\016-\274\342\346\241\275\351\372\227\275m`\001\275\327@\235=\307b\247\275\324\016\034\276\247\024\324=\024\337^\275L\233\365\274\376\016\r=ZjC\275n\2016=\036Q\225\275m\021O\275Y\276l\275\246\204*\275\000\351g\275\346\222\r\272p\215\021=g\007\001\275\231\347\265\275\277\324;\275\224\020\363\274\215I\030\274\347\020\215\275\245\216\272\275d%\221:OV3=v\371/\275l|\247\274a\271\013\275+3\300<=\321\010\276\377\333\376\274\256\240\324<\226>\262<\201\236\025\275\001\336F\275]\005%\275\033\032a<\356\037\310\273\017j\024=9%\301\274.\204m\275\370y\313\274P\025\242\275\037\221\014\273ec.\275\002`c=\002\204\253\275\244V\217\272\204\276\250<\035\212\033\275`y\306\275&#r\275\245\232\334\273.\277\260\274{\306y=\344\223a\273\004\351\225\275\006\232\302\274\364\345\230\275\241\322\004=\027\204\257\274h=\204=\224\021\310<&\374)\275I\366;;S\205\226\275\247\213\026=+_\250;\272&\020\275*\247\320<\260t \275\371T\244\274\274h\030=8\n\206;\366L\217=\006\026\r<J\261\225<T\230\013\275\331\177\230\275\342\r1<\340S\024= \376`\275\362L7\274lW\007=\003\234Z=\351)}=z\037\220=6S\177=k\266F=P\325\231\272m5\232<\303\177\347<\004\355\014\275\207d\016=\371\301\206=\327\337\272\275\267\272l\274\3126\200\275\254$I:\261\306\335<=\367X\272\230\372\234=\267S\267\274\025\275\217\275pYh=\337\214\224=h\360\257\272B\353\355;\304\033\026< \225\275\273\177LN\275\323Z\022\275\204}\255<Z7W\2742\353\r\276\016\021\226<\014\304\234\275\257\301\211\275\347gx\275L\365\254<\213U\257\275\311Z\315\275\360KF\273\261U\206=\350r4<\236\340\314\275[C\037=t\325\310:\347\230)\275:\210\244\275\222\241_=\256r\232=i\200\202\274\020\001\n;v \345\274\356\347\325\274\2061\031\274\020\220\204\275\364b\254;,\004a\275\227\345\210\2750~\013\275\254\312\244\275\246\321\200\2744\351\371<[bT\275D@\240\275b\262\270\275S\t\020\276\2051K\275\261Qo\275\001\030\320;\251h\243\275:U\240<x\214\305\274\272o\022<k\372\316\275\331\314\217\275\346\277\266\275\244\330\366\274!\243z\274\001s\353\275\230L\236\274\211\262\325\275EA\177\275\240\214\223\275\005J\370\274\010\026\224\274\031\267E=\214\177\310\275\315\331\250\274\202\204\254<,?F\275bE*<\324\310\033\274\315\201\255\274n\024\227\274\230\337\267\275%\241w\275\177\242_\274BUO\275\373\244~\275\214%D\275\007\r\226\275\376\010\367<2m&\274\034{G<\2023\233=\007y\206=6}\355<C#%=\265\037\225\275C\003\233\275\353\252\005\275\325,\244<8\327\004\276>zn\275*S\303\275\377\006\247\275O&\242=\236\243\230=~\241z\275\357f\001\2749\037\223\275A\316`=\034\243\350<\310tC\274\"\026==\205}\314<[\020\334=\274\227S\274\321\001\177=\353\276\334;\024\320I::y\266\275\014\360\244:X8-=\353I,=\3077\030\275\353\273\024<\r\203\023\2759\"\347\275\260\325$\275\333\033\304=l\311\335<\240]\312;_\204\213=\300,6\275\272\262B=27n=X\020\271;l\371\342=l\311t\275\017\354P\275\264\352\300\274xA\321\274\034s\316\274}\334\213\275C\014L=c\031\251\274\016\333\356\275\373\334\002=\22137=\214-\354\275R=\030=\262\004\261\275\311\341[;\352w\331\273\344\254G\275\302\023\244\274\177\335x\274\275\336\336\274X\224\276:\265\365`\275\325\310m\275\236=\271\275\013<3;\361}\217\274\344(\302\274V\000B\275\241$F=y\211\245<c\243\021=n\327\217\275\332\253#\275\303\320\331\273\311\272\002\275\346\023R=\3339\234\275\265\313R=\034!Q\2748\332\264<\343\245\373\274X\3678={\257\014\275`+\317\274\246`\225\274R;\'=#\375\206\274\356\367\222\275\017\344.\275\332\005#=Z-]=qr\023\275\326\262\310\274\272\030s\275\022\313a\271c9\237=\301\036\372;\207qD\275?\021*\275\225\227\217\275\370gj\275\246Cq\273:\236\342\273\227\353\301\275W\021\037\272\0245\371\274\353p\377:\21377<\271\3322=\273\232\246;\251v#\274\374\253\201\274\206\227\237=@\3726<B\016(\275G\013\014=3\026T\275g\031u\2740\312z\275\204u|:\030t\001\276\202\325+\275\364\034\213=\310\020&\276\332=\203\275\345\321-\276\031Y\305\274{/I\275*P\007\275]\246\250\272S\320:\275AN\213=\304\367D\275(r\203<\374R\250\275\026P\003\276J\356\212\274\315VI=\236!\312=\315h$=T\221\205;\347\024\223\275|\026\354\273\226\376\305\274\364\021\302\275\020\005\024\275[\367j=P\016&\276\227\342\203\275ew\210\275\236V\260\275E\307o\275\202\017\264\271\367\213]\275\014\020\361\275>\033~\273\272\"\227\273\024u\214\275Tr\260\273\231r\021\275\255`\010=P\322}\275u\204\211\275P.-\275\233j\331\275(\330\257\275g\371a\275\310\352\326<TA\260=\262@\244\275\224\036\275\275\311<\232\274\0163\265=\256\221\320<\037\330F=\220\260\206<\013\251p\275\332\322V\276#\334\024\275\236\304g\273\337L\026\274\336\316\255\273\335p\336:\250\n\242\275\262\025|<\250#\233=\323\005\331<\256\242\224=\030\361O\275\224\317\227\273\\\272\261\275\331\272\372\275o\263B=\207\341\213=\013\243f;\233p\311\274\224U\240\275\247\274\003=\312`\242\2754\014\265<h(\016\276\300t\243=\300\341-\275\331\\@\275\372\300\266\275V\335\325<~4{\275u\257Z=\320\344q\275$m`<\377\200\244\275\021(\026\274\316\236\032<\220\177\207<\322\331\311\275\363G\225;\233\001U\274qd%\275\261\277\266\275\246$\241\275F\240\342\275m9\n;\200\323\334\275\2422\255\275\242\204\305\275B\341\314\275\033\014\205\275\307\371\263\275\270\254\340\274+\314l\275\253|D\275\'\236\017\273J\217\251\275\275\201\207\275N\350x\275}\2259=\356\351\303\275U\253\314\274R\265\341<\305\344\214\275\226bO\275|\020\252;\344\317\244=\202]\273\275\317\255\314\274m\004\351\273O\377\010<\266g\300\274uO\256=u\316\367\274\234\363\246\274\304\301\374\273\016\311\223\275\035\352\265\275{Z\025=#tc\275\246\2410=\025\014\276;\036\226\212\2758ir\274T\206\210==\3564\275\344X\n=\371\3442\275 \272\020<\325\007\222<p\332\222\275\306-\223\273\'(\315:S$\252=\254\366\200=\224\247\334\274{\237\255<\366a\037=>\336\223\274\227\032\305\275`r\245\275\305q.<_&\263<p?]\274\375@E=\201\224\215=\374\035&\275\305\361\177\275=,\352\274 \272\021\274\2752\337;\354\n\302<\262\036j\275x\236\216<\347\271^\275\024h\271<R\\\335\275\027D\205\275\346\335\355\275n_\322\275\023\326\376<+\375=\275\253,l=\336\263\335;/O\331\274<\272V=\324\373\223<N\246\201\275\261\026*\275|\177\212\274\375a]:7\300\254\273\022oD<=\025\n\275QB\321<\215\214\205=\261\200$\275\r\227\212\275|_\214\272\231k\311:\240\033\326\275s\305\316\275l\256\004\275\235\265\343<@I\013=\270@H\275\367\216\201<O\371\030=\240<\365<5\337\265\275\215\033#\2753~4\275|sM<\255\026\001<m\202\007=\'Y\275\274\030t}\274\371{\347:\324\320\204\275\244f8=\375\243Y\275\343\215\311<\210\034]\275\024\216\373\27587\347\275M$4\275\316\262\246\274\366\020\030;.g\305<\374\222m;_\0160\275\364\337\344\274\217Z\205\275\242\333(\275\264{\350\275\310\357V=\001\264\362\274z\216\223\275\273\221\326\274n\n4\275\347$S=\265<`\2755\357=<\330\232C\275\247\'\226<\340\215\345<$\247M\275T?\275\273\020\306\230=\002\020\324\274\214O\263\274\177\025\230\275\004Dg=V\266]\273\211\221\217;\244\032\036=\254\263\026=8j\n=a\307\035\275nPI\275\315\311f\274\371\001o\2753\006\321<`\376k=.?-=A\230\231=\305\220c\275\016/@\275\251\327\311\274m\304o\275\341;d\275\262\201\212\274\030\206\206\275\n\251\212< \372\202\275:)\224\271\377\210\036\275\252x%\275\320\321\214\2751\006G=\\\344\030<{\325!\273@\344\232<\261VX\275n\232\037\2750\303\306<\2040\326\274)0\260<\240\211\\\275E\3322\275\244\001T\275=\307\261\274.Y\"\275\370\2723\274p\251\200=\206\035\177:\025\252e=\305\"\227\275\305*E\274:\n\214\275\033\237\235=\261-\207<\212\335\2109\247\3617=\033\035\256\275M&\323<\3353\336:\315E\233\275/\001\002=\342\225b=[1\364<\206k\341\270eL\241=\316\2708\275`\301O=,?\320<\023g\r=\347K\202=\251\363\200<\357\370T\274\242d\343\274\211Rb\275\311(X\275\340\"\241\275\000w5<\347\305\203\275*}j=\001L\355<\000!J\275\263\372|\274\035\273\233=j<\216\275{6\371\275\362=\024=W\220\216\275<\336\304=\334\316\313\275Zg\225\275\030\234\326\274\267\356\027\276\033\221\225\275c\365\217=\336\231\224<-;\033\275\274U\001\275)\376i\275\300+\005\275_\177\213\274\220\010\315\274Y\265\217<\362\010\303\274\033\211\316\275k\310\257\275\377\032i\275\275\370\002\275\226\260\254<#]\320\275\2204K\274\312\260\246\275:\275\233=\271dv=\354\232\345<\200\202C<>x\t;\0206\000\276\326\370\243\275N+#<\322\036\002>v\357\'\275\010jE<\021\010\312<\032\342\343=\345\307\222<\251\214\277<%z\243\274\372J\362=>\356h\275Bxj=\333z;\275\\n\017\275Az1\275\303\314\312\275\341\272\273\275\025\347\301\275\347l\r=\332i\r\274\377%\271\274~\306\274\275*\236\242;4_\302\275}e\207=$l\303\2737\2103=\224\235\010\275\245\374c\271\232\212\311\274^\014\250\275\242j\236\275\275\001\362;-\226\231<\231\037y\275Q\244T=\033B\373\274\013GR\275\323;/\275\201\226[=\334Q\347=!j*\275\266\342$\275\014\305\326\275~\"\031=\3447\217;{\366\037=\001\313\312<\235\017\327\2717K\224\274\026\357\251\275\254\365\223\275\252\304u\275\177X\253\273Mv+<\353V+\275\035S\252\275b\233\302\274\330_\306\273\2309H\275\320^\315\275\220\231\361\275\'\360g\275\346\215O\274\344\232\351<\344\363\006\275\3040I\275U\205\207\275\251\304\275\275C\n;=\\\201\247\275\0316\252\275]b\243\275\2367Z\275\221\023\312\274\355\345\245\274s\354\221\273\270\013\260=<\313\364\274\376o\350\275\302\267\213\275\340\265\020\274\257[\025\275\272H]\2754\004\036\275\t(0\275\336\2456\275@\224s\275\022\035\022\274\255,\205=h\204\314\274X\370\203\275k\217&;uJj<\334\246\247\275\252`\312<\025\004\003\276\205\000q=\206\314\224\275\340\300\232\275j\325\314\275\254\341\365;T\305~\275\202\263\335\274\027Zc=\277\220\025\276\317\327\225\275n\366\365\275\374O\014<\034\233\377<\006\0308<d\014\222\275\250\227\n9~\363G\274\021\272\220\275\375W7\275u\225B=\376\021P\273\342\315A\275\350\016\224=\227\341\246<\037\204\224<}\030\t=\207\317e=q\361\215\275\273a\267\275\346\020\026\275\344\276\005\272\233\314D\275\344(\361\274m\305\226\275\376\271\352;\317\350\016\275s<F=\001\031P=Qq\025\275,;\357\274.\261\"\275\372I\312\275\325\365\224\275\226L\037\270*\304\360\274\352\212K\273\205\257R\275O\377\356<UAQ\274\003t\206\275yt\r\275\2008h=J\021\322;\024E\204\275K\344\210=\250,P\275~F7\273\201>\365\275\037\024{\274j\317w\274\0103O\2750\256,<v\022I\275Zh\341=\320B\253\272\316|4\275%\302m:h\233\257\274\212\t\242\275W\'\275\275\025\201\206\275\002m\002\276\376\020,\275L\237\247\274\326\221%=\346\006&\273\333h1\275\261\246R\275\243T\240\275\314\355\256\275\346\372\002<aV\303\275\234\206n=\013\3572\275\024\254(=\314b/\275\307\030\230<\225@S\275\200\333I=k\'\367\275\273\014\036\275\313\352\241\275\270\037\262\273\314%\307\275dj\200=\341\371b<\374\230o<\337\312\035\2753\360B<\352,\006\274\033P\252=\220\247\217\275>Q$\273U$<=y\305r\275i\336\265\275\224\252\023\275\343\235d<\336\242~\275m\002\362;\032`\214=\213\302\245\275W\347-=e30\275\005\031\244\275\'\306\227\275\035d\362\275}\177\024\275\245L\317\2752\323\304\273\331\003\345=\324#\215\272\347>\237\275v\274m=\252\274`\275\003\325\236\275\223\270\237\275\307\301\205<\364\355\360=W\330\365\274<\364u\275i+^\273s\304i;3\2136=\024R\006\275M:c\273z\323\234\275\300N\333<\377*a\273\3479\005<\325\231;\275\332B\016=^~Y\275<\202\206\275\372\222\254\275\307}u<G\024\267\275\235\351&\275\230l\214\275\224l\244\275\022\267d<\214\253\000\276\375\226\204=\223a]\275U\307\003\275\263[#\275f\212\001\276\344p\201<:\316H\275N%A\275\340X\255<\307\241/\274\332\361\016\274\005M^=\310]f=\277\314w\275>Jt\273\312\354%\275\276\351e=\026\340\327\274\211\341\003\274th\240\274\256_Q\275\374\342-\274\320\214\224<\r\220\220<\037\313\376\274\344\334\001\2754R\221\275\343\232\230<\327\260\220\275\252\343\307=\005v\314=\000\210\037\276\310\225\246\274\226\035l\275\235~R\275\007\263I=s\213\025=\272\342E;\234\271\016\275 \\\325=\340-3\275\302pZ=\330\303Y\273\254\352\265\274m\tP\275U\257\246\274\364\002\266\275T\3449\274\227\031m=\357\247\257\274K\026\003<\270\312\215<\340Kr\275J\037\244\275\203\342\372\275W<\226\274V\361F<$\3618\275\002\312X\274\363C\324\275\264\212q\275\251\341\214\274\0224\264;h\344\221;\244.\207\275G\0231\274\320U\223;\211\213\211\273\205|\234\274Q\"}\274\361E\250\275\257\317\203=Q\267{\274$\254\316\273\314\203\216\274\357\232\026\274\346\275\242\274F\275!=\034\321\177\275q\367b<\313A\256\275\016E\0239\033_9=\226\233\r=t6\235\275\307\027\356<\333\355P=\226m\240=\367\032\027=\371(K\275<\201\337\274\244\336\257<p\337\334:\301:\200\274:N[=p\376\322\274QR\212=\221\013%\274\242\230\343<}\021\273=\201\231,=\303\362\355;\336 